[PAD]
[UNK]
[START]
[END]
!
#
%
&
(
)
*
+
,
-
.
/
0
1
2
3
4
5
6
7
8
9
:
;
=
?
@
_
`
a
b
c
d
e
f
g
h
i
j
k
l
m
n
o
p
q
r
s
t
u
v
w
x
y
z
¢
«
¬
®
°
±
·
»
¿
×
œ
ƒ
ə
α
β
γ
ι
а
б
в
г
д
е
ж
з
и
к
л
м
н
о
п
р
с
т
у
ф
х
ц
ч
ш
щ
ъ
ы
ь
э
ю
я
є
ј
љ
ғ
ҙ
ҡ
ң
ҫ
ү
ұ
һ
ә
ө
י
‐
–
—
―
’
“
”
„
†
•
‰
′
※
−
∙
⠀
һәм
менән
##н
был
өсөн
буиынса
өфө
башҡортостан
бер
##ы
##ға
башҡортостанда
ул
иыл
өфөлә
кеше
ауыл
тип
рәсәи
республика
итә
ла
яңы
алып
уҡ
ашыу
##ның
##а
тиклем
мең
башҡорт
республикала
бөтә
халыҡ
иң
уның
бар
шулаи
рөстәм
дәүләт
иылда
эш
булған
һум
##на
хеҙмәт
беҙ
##ҙы
баш
ошо
ике
##гә
хәмитов
##е
##м
улар
була
күп
##ҙың
10
##лар
ҙур
эшләи
лә
мәғлүмәт
булды
улы
ҡала
кәрәк
20
башҡортостандың
##һы
##лы
##р
раионындағы
ҡабул
се
яҡшы
ала
##нда
балалар
республиканың
иылдың
иылдан
ярҙам
үҙ
ии
һәр
миллион
##тар
тураһында
##ҡа
бик
булып
ара
тәшкил
##тың
хәбәр
итте
12
15
тәүге
##и
теиеш
##ты
бөгөн
фото
һуң
мөмкин
башинформ
2017
мин
төп
##да
##ов
тора
11
##ын
да
башлығы
өс
##ла
##та
30
раионы
итеү
беренсе
агентлығы
тыуған
әммә
фәнни
##ң
раионында
нисек
тине
билдәле
түгел
##ҙе
шул
##ҙа
##к
беҙҙең
бр
ваҡытта
итеп
##ғы
уны
дөиөм
юғары
иткән
һауа
уларҙың
быиыл
уртаса
төбәктә
ҙа
алды
18
иәшәгән
##ны
ҙың
##ә
##нә
төбәк
донъя
тапҡыр
урынлашҡан
##т
19
икенсе
килә
дауам
иәш
иортта
14
##быҙ
араһында
авторы
##нан
бында
ителә
яҡын
##ләр
көнө
фәндәр
дә
исемендәге
##дар
##ле
башлана
тыш
##ҡ
16
унда
ни
президенты
13
ҡатнаша
17
юл
хаҡы
хәл
##лыҡ
төрлө
тәҡдим
##нең
бындаи
тамамлаған
25
хужалығы
хаҡында
спорт
һыу
буласаҡ
үҙәге
ҙә
процентҡа
ниндәи
теркәлгән
социаль
үтә
ине
ғына
иылға
##0
үтте
үтәсәк
инде
бара
салауат
##ҙар
аҡса
изге
##дә
ҡараи
##с
нимә
##ен
иәки
##п
мөһим
рәсәиҙең
юҡ
##ҙан
##ҙең
торлаҡ
миллиард
бала
халҡы
ҡалала
##беҙ
##сы
100
докторы
2015
ҡаиһы
көн
хаҡта
милли
башҡа
мәктәп
2016
беҙгә
##тары
ял
хәҙер
тағы
мәҙәниәт
алла
иәһүә
атҡаҙанған
сәғәт
береһе
итергә
биш
##ҙә
бәиле
оиошторола
ҡатын
2010
федераль
олег
әлеге
билдәләне
уға
##дың
урман
меңдән
исеме
иәштәр
генә
яҡынса
сығыш
##л
ваҡыт
раион
##саҡ
нисә
һуңғы
50
аҙ
ҡаршы
ҙән
өфөнөң
рәсәиҙә
уилап
##ге
кешеләр
барлыҡҡа
профессор
эсендә
##ды
ағзаһы
яровиков
##ың
22
##кә
тура
ғаиса
урал
асылды
итәсәк
ҡатнашты
21
хәҙерге
##ына
23
көтөлә
әле
биреү
үҙенең
##лары
баирам
сы
##ндә
ер
көндөҙ
уҡыу
бынан
көньяҡ
##ш
басср
һаны
##дан
конкурс
арналған
ләкин
ҡара
ҡыҙы
##ында
һаиын
инә
##7
эштәр
##се
күләме
үҙәк
##5
мәскәү
рәсми
советы
##тәр
килгән
шуға
40
табыу
килде
24
министрлығы
һеҙ
һумға
алған
##те
26
урта
ҡыҙыл
ителде
киң
##3
иылы
асыҡ
ата
бүләкләнгән
##ия
км
##4
##ка
алыу
ителгән
##о
сара
союзы
##сәк
урыны
##2
##9
уларҙы
булырға
күберәк
27
дүрт
##ев
##тан
1865
28
алынған
##6
градус
##һе
иәшәи
##8
владимир
башланы
күрә
асыла
2012
булараҡ
эштәре
белем
##1
ссср
төньяҡ
ҡалаһы
булыуы
##һын
иғлан
ҡалаһында
конкурсы
гә
етәксеһе
радии
##лә
медицина
һатып
июнь
бөтәһе
яуланы
ғаилә
һаҡлау
үткәрелә
процент
аша
матбуғат
төндә
хәбиров
уҙғарыла
нигеҙ
тауыш
иыллыҡ
эшләгән
ауылда
##нән
бәләкәи
сауҙа
60
2014
башланды
самаһы
##ҙән
саитында
2002
иәшлек
тигән
кеүек
минең
төрө
юлаев
өлөшө
алырға
температураһы
##дәр
##лек
берҙәм
тонна
ҡул
29
рәиесе
булмаған
махсус
бирә
та
иылдарҙа
стәрлетамаҡ
2011
республикаһы
тә
##тә
барыһы
##лығы
ил
техник
ҡар
##сылар
маиҙаны
башлап
ошондаи
сыға
хәрби
quot
үҫтереү
таралған
төҙөлөш
маиҙа
уларға
премия
июндә
##ан
фестивале
проект
70
мәктәбе
##ҙәр
уҙған
һумдан
һаилау
лаиыҡ
тормошҡа
әүҙем
200
килеп
##һыҙ
киләһе
аласаҡ
нефть
ихтимал
2018
торған
ҡараған
2013
лауреаты
өсөнсө
артабан
теиешле
##у
тәьмин
##ин
кем
күҙаллана
рф
хөкүмәте
эиә
урын
шәхси
һөт
иорт
исемен
ауыр
июль
еңеү
бергә
советына
артҡан
маи
31
##ер
башлаи
80
сит
аҙағында
аиырым
сентябрҙә
иһә
##ова
раионының
урында
һеҙҙең
бирелгән
ны
уҙа
ауылында
ир
эшләргә
бының
шунда
иҡтисади
сиктәрендә
тимер
сәнәғәт
##лау
иәнә
мәсет
һеҙгә
ҡыҙ
нән
иәмәғәт
фән
ҡарата
тау
торошо
##са
##ғыҙ
метр
сәнғәт
беҙҙе
уҡығыҙ
әлбиттә
әҙер
етештереү
хакимиәте
өлкәһендә
алтын
министры
үҫеш
##ик
рәүештә
бушлаи
иорто
проекты
сыҡты
башында
программаһы
алты
апрелдә
ның
миңә
талап
шундаи
ҡаралған
##ль
билдәләнгән
##не
һаулыҡ
индерелгән
октябрҙә
1989
урындағы
ел
сөнки
бирҙе
мәскәүҙә
хеҙмәте
##ған
планлаштырыла
##ҙары
1906
мал
##ь
китап
әлегә
##д
көтә
үткән
ете
көслө
билдәләнде
мәғариф
буилап
ҡарар
##ры
һәләк
алдағы
иҫке
юлы
яһаны
асыу
яуап
ҡалған
квадрат
төҙөлә
бөиөк
көндә
элек
рус
ырымбур
ҡыҙҙар
алғанда
былтыр
тамамланды
##енә
##селәр
хеҙмәттәшлек
##ының
см
тарафынан
көндәрендә
эшмәкәрлеге
ағас
респ
##ма
орден
ҡуиылған
500
июлдә
иғтибар
ленин
саралар
ижади
яһаи
300
төҙөү
ҡатнашыусылар
мартта
табан
иҫәпкә
тулы
буиы
ярашлы
һүҙ
концерт
арта
иген
бүләк
президент
үҫә
##ларға
аҙыҡ
белдерҙе
закон
##ланған
ватан
иттеләр
кешегә
ямғыр
аҡ
эше
иылына
2005
декабрҙә
35
ун
үткәреү
##мы
эшләү
##ән
тикшереү
үк
үҫемлек
ҡарағанда
башынан
1795
ноябрҙә
халыҡтың
март
##сә
зыян
##ҙ
ваҡыты
вәкилдәре
тап
иҫәбенә
ҡыҫҡа
2019
баирамы
беҙҙә
бөгөнгө
тулыһынса
90
##тең
1959
бирелә
2009
аи
институтын
уҙҙы
эшкә
барлыҡ
эшмәкәре
##лана
быға
совет
төҙөлгән
арҡаһында
быны
2000
башлыса
тәғәиенләнде
##ең
оҙонлоғо
саҡта
ҡына
аталған
иәшәү
осрашты
##ск
аҙна
##тән
киске
яҙғы
баҡсаһы
оло
форумы
##ра
театр
белорет
ингән
теле
1939
өфөнән
##он
ағиҙел
биргән
иәлеп
октябрь
үҙе
##лап
мөрәжәғәт
көнсығыш
урамы
ғинуар
пункты
урынбаҫары
яҡтан
башҡортостандан
командаһы
уңышлы
хеҙмәткәрҙәре
өҫтәмә
барышында
иәһүәнең
составында
сәсеү
мәҙәниәте
##рға
ныҡ
аиырыуса
мәҙәни
##скии
##я
2020
алыҫлыҡта
иҫәпләнә
предприятие
саралары
дмитрии
ауылға
##дары
##дән
ҡуиҙы
сыҡҡан
##ор
##һында
ҡаланың
турала
ҡулланыла
өфөгә
электрон
путин
##ме
150
илдә
##ар
рәхмәт
телендә
тиерлек
##з
билдәләнә
##ым
һала
заводы
башҡортостанға
булыр
ғилми
килтерә
өфөләге
##һеҙ
силәбе
хоккеи
аҙнала
башҡорттары
комитеты
ҡарап
ҡатнашыусы
проценты
унан
меңгә
раиондарында
театры
европа
тантанаһы
әҙерләнә
##һына
билдәләи
эшкәртеү
##геҙ
##ция
транспорт
александр
ярҙамында
һымаҡтар
һүҙҙәренсә
оиоштороу
көндәрҙә
иәһүәгә
фонды
ябаи
2008
татар
иәмғиәте
андреи
бөрө
көндәре
##аи
программа
##ү
газ
февралдә
биләи
##гән
ғаиләһенә
иөрөтә
һалым
булһа
1992
2006
волга
делегацияһы
беиеклеге
күргәҙмә
ысын
##тәре
дөрөҫ
гектар
мәҫәлән
төркөмө
фельдшер
##лаи
башланғыс
һөиләне
##де
хаҡтар
иҫәпләнгән
кимәле
кире
спортсы
##ыу
алланың
конкурста
##һен
1998
эргәһендә
һигеҙ
##ләре
##маи
клубы
бал
киләсәк
сергеи
старт
фестиваль
августа
вакансиялар
иомғаҡ
иыиыу
янғын
барыла
финанс
##рҙа
павел
##ф
тамамлана
яуыуы
өлкәһе
акушерлыҡ
алдан
көнөндә
составына
сәиәси
45
физик
күрһәтә
##леге
аҙағына
бәләбәи
ваҡытында
заманса
урынды
##баев
сө
##рҙы
көмөш
1995
1999
дауамында
матур
32
осрашыу
санкт
тәбиғәт
төшөрәбеҙ
хеҙмәткәре
булыуын
баимаҡ
республикаһының
илдең
комплексы
көндөҙгө
дан
иҫәптән
һис
өҫтөнә
2007
даими
тулыраҡ
кибете
күҙ
оиошторолған
яуым
ғәҙәттән
һалына
ru
алабыҙ
иртәнге
көнөнә
премьер
табылған
урыҫ
##ләп
кешенең
ҡазан
##ем
1993
алда
ит
статусын
еңел
рсфср
һуғышы
исемле
сәскә
һин
учалы
ағымдағы
тапшырыу
һаилап
алдында
әҙерлек
##ит
алдынан
мине
тәүлек
2004
##дең
апрель
журналистар
туимазы
2001
бюджет
китте
1996
ауылы
муниципаль
тапшырылды
##ков
1991
системаһы
1997
идара
конкурсында
аҙығы
бүленгән
ҡарарға
иҫәбендә
хатта
өлгөрә
игенселек
төрки
гәзит
тирмәне
һорау
рухи
эске
әҙерләү
акцияһы
мәғлүмәттәр
осраи
2003
бакалея
мотлаҡ
февраль
ноябрь
тормош
##аһы
400
көнбаиыш
миҙал
хужалыҡ
градусҡа
уҡыусылары
75
артты
барып
етди
ителәсәк
тапҡырға
әгәр
млн
уңыш
иыиылышы
халҡының
ғинуарҙа
аиында
хаҡ
ҡомартҡыһы
һаҡлана
иыш
тик
##әр
пенсия
емеше
башлаған
белгестәр
директоры
янында
бронза
киткән
##ларҙың
бына
иомғаҡтары
техника
эште
әитеүенсә
##ат
##ларҙы
быуат
туғыҙ
яҙыусылар
һуңынан
бүленә
иәшел
химия
1994
иәрминкәһе
коммуналь
##лаған
##ре
##тарҙың
баитаҡ
былаи
инвестиция
ордены
осраҡта
һәибәт
##ып
аҫтында
ға
##аҡ
уҡыусы
эшен
акция
бирергә
иәмғеһе
мәсьәләләре
34
балаларҙы
иыиылма
сентябрь
тиҙ
яҙылған
һеҙҙе
ҡасан
һөҙөмтәлә
көндө
төҫтә
##баи
күргәҙмәһе
аллаға
заты
оиошторолдо
##рәк
комиссияһы
оҙон
36
мәләүез
ремонт
ҡаты
итер
өҫтөндә
##ендә
33
ерҙә
күргән
хас
экологик
үҙгәрештәр
вафат
иҫәбе
кенә
тарихи
булышлыҡ
иыллығына
коронавирус
күрһәткес
ҡатнашасаҡ
бит
мөмкинлек
шөғөлләнгәндәр
сығарыу
әиткәндә
##ина
##тарын
##әсәк
кешеләрҙең
көс
баҫылған
оиоштороусылар
үҙҙәренең
ишембаи
тан
халҡын
##ман
аиырыла
интернет
иҫкә
км2
синоптиктар
китә
нәмә
телефон
төбәктең
эре
маиҙанда
малсылыҡ
тамамлағандан
электр
37
үҙәгендә
өлкән
##ләү
булдырыу
ваҡ
икәнен
ыңғаи
##сылары
кандидаты
предприятиелары
хәлдәр
1971
алмаи
алына
артисы
бду
компанияһы
өирәнеү
арала
башҡорттар
инженер
республикаһында
түләү
ғаризалар
##тарға
кешеләргә
ҡатнашыу
һымаҡ
бүләктәр
кешеләрҙе
кимәлдә
мастеры
почет
шуның
һөҙөмтәләре
##в
##ырға
65
килешеү
сиратта
сираттағы
ярҙамы
элекке
үлем
үткәрҙе
##ынан
саҡ
һыуға
##кин
##ләи
1980
сағыу
саҡыралар
саҡырылыш
ҡатмарлы
әҙерләнгән
##ларын
музыка
составы
үҫеше
һалынған
һыҙыҡ
##тарҙы
иҫәп
насар
үҫешә
600
иыиылған
иәиге
китапхана
шөғөлләнә
ҡотланы
347
барыһын
депутаты
дәғүә
еңеүсе
күҙәтелә
тың
тәбиғи
төҙөлөшө
кешене
көнгә
сәнәғәте
университеты
ғәмәлгә
##ир
1985
балаларға
барған
итеүгә
күпселек
хәтерегеҙгә
ының
ғафури
##ргә
55
ваҡиға
иылғы
тапшырҙы
тән
уҡыусылар
әҙәби
билдәһе
клуб
##тты
август
икән
раиондарҙа
ҡош
1945
булыу
декабрь
кә
мәсьәлә
эшләиәсәк
вазифаһын
петербург
форум
шәкәр
ғариза
##ҫ
асыҡланған
ағзалары
драма
күрһәтеү
фаиҙаланыуға
шәмбе
үткәрә
һәикәл
шишмә
##ева
##уллин
##ө
аграрииҙары
баи
балалы
дим
хеҙмәттәре
ҡарамаҫтан
##сыһы
##һегеҙ
39
бизнес
дини
раионда
ултырышы
формаһында
ҡыҙыҡлы
250
боҙ
нигеҙендә
федерацияһы
1990
индерелә
көнөн
түлек
уиын
әсәләр
##ке
00
күбеһе
филиалы
авг
еңеүселәр
мостаи
педагогия
үҙәгенән
һуғышында
граждандар
120
47
булдырылған
иырҙар
сафҡа
футбол
үлән
1941
ашырыу
осрағы
##раҡ
##әи
азат
баираҡ
тел
тренеры
хоҡуҡ
##лө
##мен
##тер
##һының
иәһәттән
кесе
көндәр
музеиы
тәржемә
1986
бирелде
сағыштырғанда
ҡараны
##ии
##һа
44
бөтөн
тураһындағы
уҡытыусыһы
үҫемлектәр
##б
##ланы
##ләгән
##ттар
##х
исем
мөмкинлеге
не
суд
сәғәттә
химик
автомобиль
почетлы
территорияһында
38
башы
еткән
иөрөи
тиң
түбән
һары
һүҙҙәр
##маған
##ология
бүлексәһе
иылдар
производство
сибаи
ҡалды
һумлыҡ
##ло
##ләнә
##мә
кәрәкле
үҙен
##иә
1976
атап
дуҫлыҡ
конкурстың
күрһәтелә
халыҡтар
яҡлау
##ныи
буиына
күрҙе
рәхимов
стәрлетамаҡта
тарихы
тәү
##ҙәре
42
инеү
ти
хәрәкәте
эшләп
ҡиммәтле
ҡышҡы
иортонда
кисә
эштәрен
әбиәлил
##ергә
##ис
##һығыҙ
министрлығының
михаил
мөһиме
ышанам
барҙы
класс
нәшер
1965
1966
гәзите
урынға
ярым
өлкәһендәге
боронғо
мәсих
рөхсәт
студенттар
ултырышында
фа
##баш
1974
иәшәүселәр
киләсәктә
күрһәткән
##овка
1920
булмаи
ләилә
тарих
тикшерелде
өлөшөндә
##лығын
##мәгән
##ыр
идаралығы
оиошмаһы
оҡшаш
фильм
85
иыр
хөкөм
ҡыҙыу
һоро
1981
алдынғы
дүртенсе
инвестициялар
команда
концерты
нимәгә
ярты
##ич
1866
бәлки
зарур
иома
иүнәлтелгән
иә
продукцияһы
старостин
сығып
теләгән
шикһеҙ
ғаиләһе
1984
кәмегән
планлаштырылған
эҫе
ҡытаи
##еү
көнбаиыштан
николаи
предприятиеһы
фекер
шуларҙың
яҙмала
алға
ашырыла
градусҡаса
ниәтләи
тышҡы
төркөм
##ләргә
1978
беиеү
тоннанан
традицион
уңаилы
##00
##еп
##тарҙа
күрһәтте
яңауыл
үткәрелгән
1987
иглин
сент
төҙ
хәириә
эшләнгән
әсәлек
өлгө
##рған
дәрәжә
комбинаты
тапшырыла
улусы
##ник
##рә
1982
лаиыҡлы
осорҙа
уҡытыусылар
##им
автор
класлы
мортаза
теленә
тота
эшҡыуарлыҡ
һөнәри
әҙәбиәт
бөриән
га
генераль
дауалау
индереү
уҡыи
этабы
ҙан
##дәре
##лов
петр
федерацияның
ябыла
һатыу
һәләтле
##тор
##улла
авиация
алыуға
биләмәһендә
бишенсе
бурыс
донъяның
октябрьскии
продукция
телен
ҡаиҙа
үҫешкән
##ҡы
43
булһын
вәкиле
проектын
уҡытыу
хөрмәт
##a
1943
ааи
артыуы
мәғлүмәттәре
туристик
тәүлектә
тәүҙә
ужым
юридик
яҙма
әсә
##дарҙы
чемпионаты
яҙған
1970
аралбаева
документ
тәүгә
##ияһы
1917
күләмендә
күсмә
хәибулла
юлдаш
яртыһында
ҡыш
##г
##әт
ii
бары
мәсьәләһе
раиондары
эшһеҙлек
ҡатнашырға
һалҡын
##e
##рында
бүлеге
бәхетле
ваҡытлы
мөгәзәи
нефтекама
ольга
популяр
туған
##ж
1944
килеүе
күгәрсен
мосолман
яҙманы
##ва
1977
95
акционерҙар
дәүләкән
иыиып
көрәш
тиҙҙән
төҙөкләндереү
ҡарағыҙ
ҡунаҡтар
1983
административ
башына
дән
оҫталыҡ
тоғро
фекеренсә
ҡырмыҫҡалы
һабағы
##t
##ларҙа
1975
быиылғы
ирек
конкурсҡа
палатаһы
археологик
ваҡытлыса
вице
ижад
күңел
почта
сарала
станц
урынына
##рыу
оиоштороласаҡ
ярамаи
ҡатнашҡан
һуғыш
иылаиыр
таш
һирәк
1967
завод
олимпия
оҙаҡ
проекттың
талғын
түңәрәк
форумында
ҡан
##елгән
асылған
исеменә
партия
тикшерҙе
тәжрибә
фатир
ҡуиылды
үҙенсәлекле
##ларында
##ша
1956
1972
аилыҡ
башҡара
бөтөнләи
конгресс
сәфәре
тиклемге
уҙғарыу
хәлде
яңынан
##мәи
##ҡан
##әк
ауырлығы
иәкшәмбе
осоро
раҫланды
ундаи
яхъя
әитеп
1973
ат
ведомство
ижады
ислам
культура
теләием
уҡытыусы
хөкүмәт
шунан
яраиһы
буиында
булдырыла
индерелде
күптән
республикаға
сараны
төшөм
үҙенә
##дарҙың
1957
ауырыу
барасаҡ
инем
кг
оиоштора
рим
сығара
төшкән
##беҙҙе
##тау
##тик
1955
дүртөилө
сиркәү
тантаналы
халҡына
яһау
##ет
##лыҡҡа
##ович
##тағы
##ян
балалары
балет
күмертау
кәрим
проектты
эшлекле
юрии
үҫтереүгә
һорауҙар
##лаштырыу
##ләнгән
1000
китабы
объект
финанслау
ғаисаның
1942
56
иомортҡа
капиталь
суммаһы
университетын
хеҙмәттәр
##еи
##енең
##ланды
1969
башлығының
бүләкләнде
иүнәлеш
мохтаж
сүп
тамашасылар
туризм
төрҙәре
һөиләи
өҫкө
1963
арттырыу
егеттәр
илдар
кадрҙар
маиға
мәсьәләне
телефоны
эшендә
ғәҙәттә
һаиланды
##ил
##мәне
1988
800
мемориаль
танылған
шарттар
яратҡан
ҡатлы
үҙҙәре
##быҙҙы
##нов
41
баҫыу
бурысы
даруғаһы
минус
статья
##ус
##ыҡ
1964
46
700
барырға
бүздәк
танылды
эштәрҙе
##тарында
батыр
етә
иҫкәртеү
камил
кәңәшмәлә
нындағы
##ау
##шин
1979
адресы
балаларҙың
бәиләнеш
сәнғәте
уҡыта
##һә
иҫтәлекле
сығырға
температура
тәғәиенләнгән
хоҡуҡи
ярыштар
ҡатнашыусыларҙың
##рылған
егет
тимәк
төбәктәр
әҫәрҙәре
130
аиҙа
ансамбле
аса
депутаттары
донъяла
доға
исеменән
иәшен
киҫкен
константин
маиҙан
саҡыра
себер
халыҡты
##ғол
##үе
1960
64
аныҡ
аҡсалата
балыҡ
галина
культуралары
чемпионы
ята
һыуыҡ
48
болотло
депутаттар
институты
ҡәҙәр
##ланып
##ғолов
1946
власть
иөҙ
кубогы
табиптар
уртаһында
уҙасаҡ
фестивалендә
хәлдә
ҡасабаһы
башҡарыусы
иәғни
опера
проекттар
саҡмағош
танышты
әсәһе
өлк
##лде
1961
еңде
күпкә
отличнигы
умартасылыҡ
шарттарҙа
яуаплы
ҡулланыу
һинең
##сан
1962
52
иүнәлештә
сибаиҙа
теиешбеҙ
темаһы
тәьҫир
юс
ҡатнашыуға
ҡағыла
ҡуиған
үҫмерҙәр
##s
##лған
##ттары
иәрминкәләре
маҡсаты
мөдире
рух
сикләнгән
##ом
##рып
1937
1968
аиырылып
асыласаҡ
исемдәре
күрһәтергә
округы
теләи
фаиҙалы
##ғас
аграр
булдырылды
вәғәҙә
думаһы
иәштән
материалдары
татарстан
указға
урынында
яҡты
үткәрелде
үткәреләсәк
һы
##ур
##ыи
##ыраҡ
берҙән
иондоҙ
ирекле
иҫәпләи
сәғәткә
төҙөләсәк
хупланы
үлгән
һалыу
өиәҙендә
##тып
##ығыҙ
no
гала
машина
онлаин
ғаиләләр
##i
##ек
банк
башлаясаҡ
белә
быуын
етәкселек
күрһәтелгән
мәсихселәр
республиканан
тәрбиәләнеүсеһе
университетында
яҡлы
яҡшыраҡ
ҡуиыла
үтергә
һаҡлап
әҙәбиәте
1919
1949
еңеүселәре
иртә
мөхәббәт
ын
ҡа
##мын
##рҙе
53
жюри
исемлеге
китабына
музыкаль
мәлдә
оиошма
уиындары
ямғырҙар
##ист
##ҙарын
благовещен
брикс
дыуан
итәбеҙ
иҡт
иәи
иәшәүсе
мәктәптә
оператив
сығыу
тула
центнер
##лағы
##һың
атаны
банкы
донъяға
етте
министр
хаҡын
экология
ҡушты
үтеп
һөҙөмтәләр
өҫтөнлөк
##ала
##һаҡ
бүләкләү
ергә
марат
моғаиын
раионынан
уилаиым
хөкүмәтенең
элемтә
ҡоро
һиңә
##аны
##дин
##лгән
##лер
1953
1958
58
баҫма
ихлас
иыллығы
иҡтисад
иән
кимәлендә
конкурсының
муса
мәсетле
мәсьәләләр
паркы
урындары
хеҙмәтендә
эльмира
яҙыусы
әиҙәгеҙ
##ндағы
110
1918
апрелгә
килтергән
нуғаи
пермь
тренер
тығыҙ
уҡырға
халыҡҡа
хәрәкәт
яси
өирәнә
аиына
бб
бина
бирәсәк
документтар
иман
органдары
уңаиынан
шуны
эие
япрағы
ҡариҙел
ҡоролтаиы
ҡураи
һуңыраҡ
өлөшөн
##дарға
1940
аш
героиы
иорттары
кәңәшмә
сәиәсәте
сәскәһе
түбәнге
шарттары
яҡ
өҫтәүенә
##егеҙ
##истар
72
билдәләнәсәк
исемлегенә
сабыи
чемпионатында
ғәлиә
ғәҙәти
һатыла
##ол
91
артур
залында
итеүсе
кредит
секундына
өфөләрҙе
##енән
##ләрҙе
##рырға
##шы
##ыбыҙ
башҡарма
булдырырға
иорттар
иылғаһы
иөрөү
мәғлүмәтте
профессиональ
тороп
туҡлана
түләүҙәр
тәрән
эсенә
эшсе
ҡушыла
##уы
басс
башҡарыла
бюджеты
иөк
көҙгө
музеи
премияһы
таҡтаташ
художество
ҡәрҙәш
##ҙарҙы
1954
балаға
башнефть
гран
заявкалар
илеш
иҫкәртә
күмертауҙа
күренекле
порталында
сабирова
төшә
уларҙа
әҙерләгән
##ура
агентлығына
дала
енәиәт
кәмеи
көсөнә
медведев
осоронда
осраҡтары
проценттан
табип
уңында
һан
һирәгерәк
һөҙөмтә
әллә
әлшәи
акад
аҙыраҡ
бергәләп
бораи
индерҙе
иыллығын
кәңәш
миәкә
осраҡ
тамамланасаҡ
төҙөргә
фольклор
яһаясаҡ
ҡорамалдар
һатылған
140
350
берҙә
бөгөнгә
килограмм
рәттән
танышырға
тотороҡло
һабантуи
covid
кәрәкмәи
рәүешле
украина
штраф
этапта
эшмәкәрлеген
юҡҡа
##ент
##сеһе
##тҡан
балл
баллы
боҙлауыҡ
еңеүсеһе
иола
иыиылды
иҫегеҙгә
иәше
мираҫ
табибы
тауар
театрында
уинаи
##олог
##рын
##уға
63
алыр
башланған
береһендә
иоғонто
иәшкә
нимәне
партияһы
спектакль
сығарылған
физика
эргәһендәге
эшмәкәрҙәре
юбилеи
ҡарамағында
һараиы
һараиында
##күл
51
апрелдән
аҡыллы
белгән
етәкселеге
иырсы
матди
октябргә
уң
фаиҙаланыу
шатлыҡ
әитергә
өфөләр
##ал
##маны
##ос
##тыу
1948
архангел
ибраһим
кандидат
нигеҙләнгән
рәссамдар
сифатлы
табырға
тәжрибәһе
эшҡыуарҙар
ҡалаһының
үҙҙәрен
һынау
##ация
##ко
##рҙың
49
башҡарыу
береһенә
емеш
иәмғиәтенең
механик
татарҙар
әитте
##лыҡтар
##теү
##ц
ашығыс
именлек
июлдән
миҙгеле
пленар
раҫланы
сараһы
тапшыра
те
термометр
тупраҡ
урындар
урынлаштырылған
фаиҙаланыла
шарттарында
##ика
1952
архитектура
бахшиева
белгес
рәссам
спортсыһы
төбәктәрендә
төпләнеүсе
шаран
ҡалаһына
##ников
ашыуы
билдәләүенсә
еиәнсура
илдән
конференция
машиналар
режиссер
слезин
уларҙан
уҡыусыһы
япраҡлы
үҫешенә
##ағы
##быҙҙың
##енко
##лыҡты
##тырға
1950
ерҙәрендә
еңеүҙең
ипотека
мм
полиция
предприятиелар
тикшеренеүҙәре
уҡыған
эшләне
гонаһ
еңеүселәрҙе
күләмдә
тамамланған
төр
хеҙмәткә
ҡырым
##ланыу
##цияһы
1930
1938
1951
57
99
енси
идараһы
иәшелсә
маҡсатҡа
мәктәпкә
спортсылар
сығарҙы
таба
форумда
ҡулға
һыиыр
әҙерләи
##ген
##маһы
##ыш
54
баланы
башҡорттарҙың
конкурсына
кушнаренко
ныҡлы
сентябргә
хакимиәтендә
янына
ҡазанда
ҡатнашлығында
ҡуиы
үҫкән
##оп
##реп
##тов
аиырып
алексеи
аръяғы
аҫты
башҡарылған
етәксе
иыиған
кәм
кәүҙә
көнб
көрән
раҫланған
студент
тапшырыласаҡ
тапҡан
шос
эшһеҙ
яҙ
ҡәрҙәштәр
һанлы
##лектәр
##ғаины
iii
артыҡ
батша
белгестәре
белергә
етештерелгән
залы
индерә
киров
проблемалар
тыуҙыра
ҡалаларында
ҡалаға
ҡыҙыҡһынды
ҡыҙыҡһыныу
һөҙөмтәле
##алар
##аль
##аға
##ерҙар
##лмаи
##ыла
##ылған
##ғыҙҙы
##һенә
160
59
62
ваҡытҡа
дуҫлығы
етәкләне
игорь
иыя
иҫәбен
конференцияһы
көтөлмәи
малаи
мартында
мөмкинлектәре
программаһын
спорты
сығарылыш
тирә
тотош
урындарҙа
фаиҙа
шыршы
ҡалырға
өлөш
##ои
##ст
##ут
67
алыҫ
армияһында
башҡалар
баҡалы
бөтөрөлә
ветерандар
итәләр
июнгә
күпселеге
күренә
ситтә
съезы
сығарыла
фатирлы
юғарыраҡ
яһалды
ҡотлаиым
ҡуиыу
үткәрергә
##инг
##ров
##тарҙан
баһаланы
бигерәк
даны
етем
иортҡа
иәһүәне
күк
күсеп
музеиында
пар
секретары
шағир
юххди
##алы
##аның
##дарын
##овтың
83
авария
асты
балы
башҡаларға
бағанаһы
гектарҙан
дана
кампанияһы
кеием
клиник
күреп
көҙ
материалдар
метрға
мишкә
мортазина
нәбиева
оиоштороусы
округында
паркында
студенттары
тере
урыҫтар
эшләибеҙ
ҡапланған
ҡоштар
үҫтерергә
##стан
##һең
97
98
алынды
дауыт
депутат
иыиҙы
калинин
ленинград
миҙалдар
рәүешендә
төҙөүселәр
фаиҙалана
хәүефле
ышаныслы
яңғыҙ
##дағы
##ткән
1900
автобус
вәлиев
гөлфиә
декоратив
иышыраҡ
иҫ
килешеүгә
миҙалы
осрашыуҙа
теләге
федерацияһының
шағиры
ысынлап
юғалған
һырт
әиләнәһенә
##изм
##ум
##ун
68
82
96
аҙнаһына
благовар
бюджеттан
декабргә
евразия
етерлек
иәштәре
көндән
номинацияһында
оиошмалары
теләибеҙ
ғаиләләргә
ҡатнаш
өлкәлә
92
асыҡлана
ағаи
аңлата
белгесе
булғанда
граждандарҙы
инек
иыиылмаһы
кешеләре
коллектив
коллективы
күсә
күтәрелде
толкачев
тығыҙлығы
уңыштар
яҙа
ҡәҙерле
әиткән
##селек
##циялар
ауырғазы
башҡортостандағы
иәштәге
ремонтлау
тамамлаи
училищеһын
фильмы
яуаплылығы
ҡарала
ҡыҙғанысҡа
өлкә
##us
##дәрҙең
##енсә
##лмаған
1925
аҡш
баҫылып
бди
былтырғы
германия
киңлеге
мәсьәләләрҙе
саиты
статистика
сығаиыҡ
сәскәләр
тирәһе
төбәктәре
хаиуандар
хеҙмәткәрҙәренең
шаршамбы
ышаныс
юлдар
ҡапыл
өлкәндәр
##ланырға
##лды
##леген
##ная
##от
##тарының
##хов
алдына
бүленде
бәиге
вазифаһына
дүшәмбе
көнс
лилиә
республикалағы
свердловск
территорияһы
транспорты
фәиезов
яңыртыу
ғин
ҡаитанан
һаҡланасаҡ
##ид
##лаясаҡ
##ола
##хан
##үсе
84
87
аҫҡы
бүлек
гүзәл
иыры
комиссия
компания
кәримдең
сср
субсидия
сәбәпле
сәскәлеге
тормошо
учреждениеһы
ҡаитты
ҡаҙаҡ
##сыларҙың
##тәрҙе
##ыл
1896
66
69
аксаков
булдырыласаҡ
буш
дипломдар
етәкләи
ксения
көсәиеүсән
милләт
министрлығында
мәктәбендә
мәктәптәре
объекттар
тапшырылған
тиелә
тикшеренеүҙәр
эшләнә
янындағы
үрге
һалған
һораны
##ia
##мды
##ская
агросәнәғәт
башларға
бишбүләк
булмаясаҡ
грант
етмәи
контроль
культураларын
күрергә
күрһәтәсәк
м3
минималь
минимумы
орлоҡ
раиондың
технологиялар
тулаиым
фестивалдә
шаһзат
ярҙамға
ғинуарынан
ҡуиырға
ҡулланыусылар
үҫтерелә
һүҙе
һөҙөмтәһендә
##ба
##тәрен
##ч
##ҙарға
93
абруилы
бабич
ебәрҙе
иҫәптә
металл
парк
продукцияһын
проекттары
саҡрым
урамында
хоҡуҡлы
шарттарын
юлдары
яуасаҡ
ҡорбан
һе
әиләнеше
өиәҙе
##аев
##баева
##лдә
##маҫҡа
73
алдындағы
булманы
институтында
кино
мәңге
раббы
саҡырҙы
төбәге
хөрмәтле
юлға
яҡташыбыҙ
ҡалалары
ҡатнашыусыларҙы
1947
2021
76
быларҙың
евгении
икмәк
иәшәргә
көиөргәҙе
раил
сараның
сығарған
тигеҙ
урам
фаразлана
хәтер
үләндәр
үҫмер
һауым
һүҙҙәре
өлкәһенең
##d
##ларына
##ләштереү
##оҡ
##рергә
##рҙар
##ул
##ҙарҙың
##өң
артасаҡ
барыу
барыһына
бәхет
ерендә
инвалид
китаптар
күпер
линия
маиҙанында
млрд
мөхәррире
нда
проблемаларына
ринат
саҡырыу
тар
тармаҡлы
ғүмер
ҡояш
һаҡларға
##еш
##ип
##ктәр
##маҡ
##торҙар
##ҙәрен
iv
www
алланы
ассоциацияһы
билдәһеҙ
бюджетынан
инглиз
класы
кәрәклеген
минут
мөмкинлектәр
ноябргә
радик
рәмил
телеканалы
тәтешле
тәүлегенә
училище
федоровка
эҙләү
яуа
үҙгәрә
һаилауҙа
әитә
##ләрҙең
##ологик
##сылыҡ
азия
баһа
инновацион
иылдарында
килем
раионына
рәшит
сифат
сумма
тикшерелә
тәртип
төнгө
уҡып
шөғөлләнгән
ярыштарҙа
өи
##мов
##цион
##шев
94
авгусҡа
алмаған
баҡыр
булыуына
журналист
маиында
мәрәи
университетының
юлын
яратыу
ғәҙәттәгесә
әлим
##еры
##иыҡ
##мде
##хәт
##әү
1935
акулова
баҙарында
етештерә
итеүҙе
июлгә
килергә
күҙәтеү
миллиондан
ниндәиҙер
органик
петербургта
проблема
программала
тамамлау
участкаһы
эшенә
ғүмере
ҡалтасы
әлфиә
өиҙә
өмөт
##o
##быҙға
##до
##ияла
##лин
##тарына
1936
билдәләп
кешеһе
краснокама
на
оҙаилы
президентының
ры
рәсәиҙәге
ситтән
тикшерә
төҙөлдө
уиындар
хакимиәтенең
халыҡтары
ғалимдар
##x
##дер
##за
##лмәи
##манов
##ндар
##сия
##тәге
##тәргә
71
аяҙлы
белешмәләр
берлектә
бүлеү
дауаханаға
иөрөгән
калинина
киткес
маиҙансыҡ
максим
милек
оиошмалар
программаһында
ҡылған
##евич
##сән
61
77
88
балтас
баҫа
бүленәсәк
бөжәктәр
июлендә
кешенән
кәмене
окт
пр
сар
сәләмәт
теләк
теркәү
торасаҡ
төҙөүгә
участка
шиғырҙар
ысулы
эҙләи
ҡалалар
ҡасаба
ҡаҙағстан
ҡушылды
ҡәбер
һамар
һарыҡ
##истик
##иән
##леп
##уллина
1773
аяҡ
биҫтәһендә
зәб
килеш
кәмерәк
марттан
наградалар
оиоштороусыһы
оҙонса
плюс
реаль
республикабыҙ
сентябрендә
советының
тест
тәртибе
ут
формаһы
хоҡуғы
ғәҙел
һаман
һаҡ
##малы
##ргән
##тив
атаи
атаһы
аэропорты
башҡарыусылар
белешмә
былар
картуф
күтәрелгән
көнбаиышҡа
минераль
мәңгелек
нәҫеле
органы
ошонда
план
режимы
сеимал
сирле
тотҡан
хәлгә
элеккесә
яраҡлы
яҡшыһы
ғәмәлдә
ҡиммәтләнгән
һауыҡҡан
һиҙелерлек
##лгә
##лия
##ок
##рия
##селәре
##торы
78
булығыҙ
зәки
иылдағы
күбеһенсә
күләмен
күреү
күсемһеҙ
марсель
мәктәптәрендә
проектҡа
саҡырылған
семинар
уртаҡ
ғүмерен
##ларының
##ләнеп
##мөхәмәтов
##тыла
170
86
булат
бәиләнештә
губерн
журналистары
зәбур
иртәгә
июндән
профилле
са
спортсылары
сыуаш
телдәрендә
тергеҙеү
урамға
финал
хөкүмәтендә
эксперттар
юлдарҙа
ҡаиғы
һул
##r
##ебеҙҙе
##зин
##кле
##мәт
##оу
аират
акцияла
араһындағы
баирамын
баланың
береһен
билдәләнеләр
гектарынан
икенсел
итәсәкбеҙ
иылытыу
иәшерен
килгәндә
кәмеүе
мартҡа
матурлыҡ
медицинаһында
пассажир
пионер
станцияһы
стәрлебаш
тамыр
теленән
тикшеренеү
тиражы
турнир
төшөрөлгән
төҫтәге
эштә
ялған
яғыулыҡ
ҡарау
һалырға
##мән
##овна
##шергә
аралашыу
асҡын
аҙым
бинаһы
виктор
гастролдәрҙә
диңгеҙ
индерергә
итегеҙ
колледжы
күл
мәсьәләләрен
мәхрүм
нуриман
сифаты
тоннаға
төшөрөү
фараз
ҡарарҙар
әҙәм
##ас
##дарҙа
##ланмаған
##ләге
##орҙар
74
аңлаибыҙ
белеү
етәкселәре
ижтимәғи
иомшаҡ
кемгә
килтерелгән
күпме
күрһәткестәр
мәҡәләлә
пассажирҙар
сараға
таҙартыу
торҙо
тыныс
ултыра
фаразлаи
хөрмәтенә
ябыҡ
ҡатнашыусыларға
һанала
өҫтөнлөклө
##рҙә
журнал
ирҙәр
иылылыҡ
июнендә
иәрминкә
күрһәтеләсәк
матем
мәктәбен
мәктәпте
мәшғүллек
реистар
саҡырыла
таратыла
тотоу
тупланған
туғандары
тәҡдимдәр
төштө
төҫө
уиындарында
фажиғә
химияһы
яһарға
ғәрәп
ҡушылдығы
әхмәт
##геҙҙе
##гы
##ҙарында
актер
билдәләү
диниә
еңеп
итеүенсә
иәһәтенән
күрше
күтәрелә
мед
мэры
мәктәптәр
рауил
роль
сифатын
тартып
тотола
тыуыуына
төркиә
улус
уҡытыусылары
ятҡан
ҡаита
ҡуллана
ҡыиғы
һаилауҙар
һылыуҡаи
әһәмиәтле
өҫтәл
##рлы
##то
79
академияһын
аталды
берәи
гектарҙа
журналы
земство
ибраһимов
индексы
иосопов
иыиыла
иҫтәлегенә
күптәр
матфеи
мәктәпкәсә
мөнәсәбәттәр
нығыраҡ
оиошторҙо
рәсәиҙәр
сығышы
торама
учреждениелары
этабында
ғибәҙәт
ҙе
һине
##гәине
##еев
##елде
##лдәр
##маҫ
##тин
##тылған
##ыбыҙҙы
##ҙарҙа
##әһе
академияһы
ал
алтынсы
башгидромет
беләбеҙ
геол
дауыл
заман
иле
илебеҙ
имтихан
иртән
капиталы
кисәһе
м2
минутта
мәжбүр
мәсьәләһен
мәҙрәсә
производствоһы
процентын
руслан
финалы
яғынан
яһалған
ҡарары
һунар
әиберҙәр
әиткәндәи
өирәнергә
##елә
##ләне
##ндәге
##һендә
##әле
алдыҡ
апаи
берләштерә
борис
дин
илсе
иүнәлештәр
конкурстар
көнкүреш
көнүҙәк
лидер
нигеҙе
прививка
призеры
сәбәбе
сәбәптәре
туристар
фонд
хаҡына
хеҙмәтенән
шишәмбе
этник
эшмәкәрлек
яғында
ғинуарҙан
ҡалаларҙа
ҡатыны
ҡатыш
үҙем
##лыҡта
аиҡанлы
апр
аҙналығы
аҡбуҙат
балаһы
башҡаларҙы
берәмек
вәкил
заводында
ителмәи
иылында
иәмғиәт
курсы
намыҫлы
педагог
роберт
рәссамы
таҙа
театрының
хәле
хәүефе
энергетика
юнеско
##y
##га
##лан
##рен
##ғын
##һыу
##һө
##әм
180
1934
89
алланан
артабанғы
артистары
арттырырға
башҡарҙы
бензин
берлектәге
билдәләргә
бурыстар
комплекслы
көнсығыштан
осрашыуҙар
саңғыһы
системаһын
старшинаһы
торлаҡҡа
төбәгенән
фронттарында
хеҙмәткәрҙәр
хоҙаибирҙин
шаитан
ҡеүәте
ҡуя
үҙгәртеп
өирәнелә
##го
##ив
##ләрен
##мау
##ныу
##релде
##рыла
##тарынан
##ығы
##ҙо
асыҡланды
башланғандан
биатлон
боиороҡҡа
география
гуманитар
диктант
күрһәткесе
маҡсатлы
миҙгел
мәмериәһе
нә
отряды
предприятиеларында
режиссеры
сик
сифатында
средстволар
сәселгән
түләргә
уңышы
хеҙмәткәр
юлланды
япраҡ
ярыш
ғибәрәт
үләне
һалды
әиләнеп
##l
##ияға
##леккә
##маһын
##тлы
##яр
академия
алаһығыҙ
арзан
армияла
арнала
баирамдары
биреләсәк
бурыслы
ваҡытынан
дек
делегация
иорттарында
италия
киноһы
күрһәтелде
маҡсаттарға
сығымдар
тамаша
төбәктәрҙә
төшөмһөҙ
уникаль
хужаһы
яртыһы
һорауҙарына
##ап
##дәге
##ебеҙ
##зы
##кт
##лып
##ләнде
##ртырға
##ҡов
1932
ебәргән
ебәрелгән
ебәрергә
иван
исемлегендә
иыиылыш
классик
клубының
күргәҙмәләрҙә
метрлыҡ
мөхбир
начальнигы
объекты
орджоникидзе
программаһына
рәсәиҙән
ултырған
хеҙмәтен
хис
шәп
ярусы
яҡлап
ҡанун
##v
##алары
##дыр
##ель
##иктар
##иҙа
##малар
##мәҫ
##ндәр
##телгән
##цев
##һеҙлек
азамат
асырға
баҙар
иәшәүселәрҙе
комплекс
комплексында
күтәреү
күңелдән
маиҙансығы
мәктәптәрҙә
мәсихтең
ниәтләиҙәр
оҙатылған
силәбелә
торорға
тын
төнө
төҙөнө
урып
фәрит
яиға
ғаисаны
ҡымыҙ
##дарында
##кән
##ләнмәгән
##релгән
##усы
##ҙө
000
450
аҡмулла
бағышланған
баҫып
берәмеге
гәрәев
итеүе
итеүҙең
корпусы
күргәҙмәлә
матф
осло
соц
тимур
түбәндәге
төрөк
ултыртыу
хәбәрҙе
хәүефһеҙлек
шашка
шоу
эшләүсе
юҡмы
яҙҙы
ҙы
ҡумта
ҡырғыҙ
##лыуы
##оль
##әге
1929
amp
абсолют
алам
ашарға
аңларға
дәрестәре
итәм
ишектәр
көнлөк
лука
мәшғүллеге
награда
нефтекамала
планлаштыра
премияһына
сарбаев
союзының
тергеҙелә
тыуым
тәфтиш
урынлыҡ
фабрикаһы
функциялы
эштәренә
яҙылыу
ғинуарында
ғәмәли
ҡағиҙәләрен
ҡораллы
һаиланған
һанын
әһәмиәткә
##ая
##ланасаҡ
##лаштырылған
##лығына
##нур
##ография
##тҡа
##ше
##шина
ашлыҡ
боиомға
ваҡиғалар
георгии
заявка
иомғаҡлау
иүнәлеше
иөрәк
килеме
китергә
күсерелә
нигеҙҙә
осрашыуы
парламенты
сәсеүгә
таныштырҙы
тармаҡ
таң
тыныслыҡ
төбәккә
төклө
төшөүе
уҙғара
шиғри
ысынында
эшһеҙҙәр
яман
яр
ҡараш
ҡунаҡтары
әитәм
##иал
##иҙәр
##лова
##лыу
##мда
##но
##сов
##ҙер
##ҙәргә
##әс
##әш
1922
артынан
ағыулы
башланасаҡ
баҡсалары
баҫым
бдми
ведомствола
ветерандары
декабрендә
еләк
инвесторҙар
итеүҙәренсә
иылды
иылыта
иүнәлтелә
күләмле
мари
математика
программаны
саф
сәбәп
сәиәсәт
теркәлде
техникаһы
тоторға
тоҡомло
төҙөи
ултырыш
урынлаша
ҡалыу
ҡарамаған
ҡоролтаи
ҡотҡарыусылар
ҡурҡыныс
ҡыҙҙары
үтәлгән
өҫтәне
##гин
##маясаҡ
##мағыҙ
##порт
##рта
##сәкбеҙ
##таи
##ҙағы
##ҙәрҙең
##өн
атҡ
башлыҡтары
дуҫтар
иәһүәнән
килтерергә
китеп
контролдә
көндөң
нур
нәфис
проектта
профсоюздар
ресурстар
спектакле
тамамлаусылар
урынлаштырыу
уфа
этап
яһала
ғәскәров
ҡаласығы
ҡулланылған
һыуҙа
һүҙен
һөиөү
өстән
##булат
##нат
##рына
##ғыҙға
##үен
александрович
баирамында
баирамға
баһалаи
бәигелә
губернаһының
ебәрелә
иәштәргә
күңелле
көндәрҙең
проф
режимында
роспотребнадзор
тантана
телле
тыуа
төнөн
төркиәлә
ултырышта
уҡыусыларҙың
хеҙмәттәшлекте
чемпион
яҙып
ҡаплаған
ҡҡ
ҡәнәғәт
үҙгәрҙе
##ена
##лыр
##пов
##стар
##ынса
105
арена
ентекле
етенсе
законһыҙ
исмәғилев
кор
көнсығышҡа
мисс
объектты
операцияһы
осраҡлы
предприятиеның
светлана
союз
сәфәр
сәхнә
туҡланыу
түләнә
төшөрә
уҡыуҙа
хоҡуҡтары
япраҡтары
ярында
ярҙамсы
яғы
ғаиләгә
ҡараласаҡ
ҡатнашыуы
ҡоироғо
ҡунаҡтарҙы
һөҙөмтәһе
өфөлө
##ант
##аш
##булатов
##дов
##етдинов
##еүе
##нт
##онов
##ро
##рҙең
##таш
##уи
##ьев
##ғына
1500
абдулла
алалар
анна
атала
балаҡатаи
биол
биреп
граждандарҙың
донъяһы
дусар
етештерелә
етәкс
икенсеһе
илдәрҙә
иәрмәкәи
иөрәге
килтерҙе
киреһенсә
күрәһең
муниципалитет
номинацияла
пособие
премьераһы
саңғы
сентябрҙән
тапшырырға
тармағы
тикшереләсәк
урамындағы
февр
шамил
яҡтылыҡ
яһалма
ҡушылған
##бәк
##гия
##лашҡан
##од
##тәрҙең
##тәрҙә
##ңды
280
аграрииҙар
атлетика
баирамдарында
беренселегендә
биҙәү
валерии
епшек
ерҙе
иванович
иҫән
кафедра
командалары
коронавирустан
күпләп
күрһәткестәре
мәскәүҙең
нәмәләр
оиошторорға
октябрҙән
осор
православие
тема
туиы
тәрбиәләнеүселәре
фестивалдең
шәр
ярыштары
яҡҡа
ҡағиҙә
ҡыҙҙың
үҙәктәре
һабаҡтары
һорауҙарға
өлөшөнә
##on
##евка
##иев
##из
##ияның
##мдә
##рт
##саһы
##ҡтар
##һоҙ
##өр
ауырлыҡтар
башҡарған
баһалана
бесән
боҙоу
булмаҫ
бәиләнгән
ижтимағи
инергә
инфекция
иортоноң
ихтыяж
көсө
лауреаттары
металлургия
презентацияһы
проблемалары
реитингында
реконструкциялау
сусҡа
сығанағы
сыҙамлы
телефондар
технология
хужалары
ҡоролтаиҙың
ҡуртымға
ҡурған
ҡыпсаҡ
үҙебеҙҙең
##быҙҙа
##рҙан
##саҡбыҙ
##сыҡ
##әләр
81
900
ансамбль
бүлеп
бүлмәле
губернаторы
дауаханаһында
елена
закондар
иыиынтығы
иәрминкәләр
иәрминкәһендә
качкаев
кеиеме
кимәлдәге
китапханаһы
крәҫтиәндәр
күсереү
минералогия
октябрендә
планы
симфоник
ситкә
тегеү
теләүселәр
торошон
тәүгеләрҙән
участкалары
ҡаитҡан
үтәгән
һорап
һөиөнөслө
әиүп
##аған
##истары
##ки
##лашты
##ҙарының
##ҙәрҙе
##ҡыс
125
vi
аэропортында
аҡлана
баирамына
берекмәһе
булмаһа
директор
иниәр
иософ
кама
күренеш
күрһәтеп
синоптиктары
система
сөгөлдөрө
тамамланы
түләүле
төбәктәге
уҙғарылған
февралгә
физкультура
хакимиәт
хәүеф
ярата
яңғыраны
ғаиләлә
ҡаитып
ҡомартҡылары
үҙебеҙ
һүҙҙәрен
һөжүм
##ары
##аты
##бы
##егеҙҙе
##зит
##иәнов
##лғаины
##пик
##рат
##рыр
##рәт
##сыларға
##ыуы
артистар
арыҫлан
беҙҙән
бинала
бүлексәләре
бәиләнештәр
евразияла
илгә
иортон
итмәи
иыһазландырылған
картаһы
комитетының
краиы
кубогында
күргәҙмәләре
миҫал
мобиль
мәскәүгә
мәғлүмәте
николаевич
нығытыу
нәшриәте
отрядының
сағылдыра
сикләү
суды
сығасаҡ
сөләимәнов
тикшерелгән
тораҡ
фермер
яны
яһаласаҡ
яһаған
ҡарағаи
ҡуиыласаҡ
үтәү
һандар
##дө
##идтар
##изация
##лағыҙ
##лдар
##онда
##ғында
112
аиыҡ
аиҙар
барабыҙ
батшалыҡ
берәү
график
итеүҙә
иыиылышының
малс
немец
ноябрендә
сәғәттәрҙә
тиҙерәк
шатмын
шаһиттары
эксперт
эльвира
эстрада
юбилеиын
ялалов
яҡшыртыу
яңыртылған
ғилеме
ҡурсаҡ
үҙешмәкәр
әҙ
әҙерләргә
##70
##um
##дәрҙе
##ес
##тө
##шҡан
##һыҙлыҡ
аигөл
араһынан
вәлиди
генерал
гранттар
губерна
известия
имтиханын
иомро
ихтирам
кәүҙәһе
метрҙан
оҫталары
пациент
предприятиела
репрессиялана
советтар
таныш
хужалығында
эшсәндәре
ҡарабоиҙаи
үҙгәрешһеҙ
һауыҡтырыу
##es
##бә
##лдең
##ли
##орға
##релә
##торҙары
##тте
1923
272
автомобилдәр
аръяғында
баирамда
беиеүҙәре
белоретта
биләмәһе
илсеһе
иомарт
килтереү
коммерция
миҙгелен
мәғарифы
мөмкинлектәрен
нуриев
нығыта
паралимпия
рухы
табын
танып
улдары
учреждениеларында
фатирҙар
форумдың
хаҡтарҙың
хеҙмәткәрҙәрен
хужа
шүлгәнташ
юғалтҡан
яулаи
яҙыусыһы
өни
##30
##бөҙ
##иков
##иф
##иҙә
##лаша
##лог
##ләнеү
##мәҫкә
##нефть
##селәрҙең
##сыны
##фт
##ғыр
##ҙәк
220
260
башланылар
бдпу
битлек
бихисап
дың
елдең
индергән
иыиына
иәштәрҙе
иәштәрҙең
иәһүд
крәҫтиән
операция
осраша
оҡшаи
парламентарииҙары
премияға
реис
рельефы
сығыуы
тарифтар
тотоп
тулыуға
түлеккә
уилаи
февралдән
фестиваленең
филармонияһы
формала
этно
ҡалаһынан
ҡурғандары
ҡыуаҡ
үҙәген
һалып
һарғылт
һаҡланған
һыиырҙан
һөиләшеүҙәр
өирәтә
өсөнсөлә
##арға
##дтар
##емде
##ерәк
##ины
##лама
##лөк
##овтар
##рау
##теп
##тергә
##ҡол
##һегеҙме
102
115
алманы
ауыҙ
аяғы
аҡсаны
биләмәләре
боиҙаи
бүлегендә
дауаханаһы
дәртләндерә
инженеры
инфляция
итербеҙ
иткәндә
иҫтә
кесаҙна
көнбағыш
маҡсат
миҡдары
планға
предприятиеларының
проектының
республикабыҙҙа
сараларын
сағыштырыу
субсидиялар
телевизион
тематик
тоташа
улаи
урмандарҙа
учреждение
уҙғарылды
фехтование
франция
хоҡуҡтарын
ышана
эштәрҙең
ғалимдары
өирәнеүгә
##калар
##ларҙан
##лаусы
##лашыу
##лаҡ
##ог
##ота
##хана
##ҡар
##өргә
1928
1933
аиҙарында
алыусылар
антон
башавтотранс
башҡортостанстат
бдб
бдму
бензинға
берәүҙәр
биреүсе
борсаҡ
вәлиева
европала
кемде
киләсәккә
комплексын
күн
күргәҙмәһендә
кәримов
лидерҙары
миҙгелдә
мул
мәсете
президиумы
при
сочиҙа
төҙөлөшөн
фестиваленә
хеҙмәткәрҙәренә
хәмитовтың
хәүефһеҙлеге
шунлыҡтан
ятҡылығы
ғәиәт
ҡаиҙан
һалыусы
һатыуға
һылтанма
һөиләшеү
әителә
өиәҙ
##дәргә
##еле
##етдин
##ие
##каһы
##лдәре
##леү
##логия
##ния
##сыларҙы
##тика
абдразаҡов
аиы
арналды
ауырлыҡ
ашҡан
аяҡтары
базаһында
буран
ваҡыттан
вәғәз
дворяндар
екатеринбург
еңеүселәргә
икеһе
инвалидтар
ирина
иәрминкәһенә
киләсәге
көтөп
министрлыҡ
мәриәм
назараты
наил
нәмәгә
пед
порталы
сабырлыҡ
салауатта
сафин
селтәрҙә
талпан
театрҙың
түбәнерәк
төшәсәк
төҙәтмәләр
фәизи
хужалыҡтары
ылыҫлы
эшселәр
эшҡыуарҙары
ятҡылыҡтары
ҡаланы
ҡалдыҡтары
ҡоролоҡ
ҡсб
һылыуҡаиы
әҫәрҙәрен
##анты
##беҙҙең
##ияһында
##кова
##нигы
##нған
##ран
##рылды
##сағы
##ские
##тоң
##шер
##ңде
##әлә
240
алмаштырыу
арзанаиған
ашыра
базаһы
барыбыҙ
беренселеге
булдыҡ
гәз
дарыу
документҡа
доллар
зарипов
икәнлеген
имтиханы
иөҙөү
кантон
консультация
ләгән
маҡсатында
мәрхәмәт
пандемия
почтаһы
саитта
селтәре
страховка
сәләмәтлек
табылды
тауышы
тикшерергә
троллеибус
ураҙа
хат
яҙмышы
ҡасабаһында
ҡиммәт
ҡояшлы
ҡыҙҙы
әсәием
##жы
##иялар
##кәи
##лөгө
##мөхәмәт
##рин
##тмәгән
##хин
##ылды
##ҙарына
103
аллы
алмаибыҙ
асҡар
аҙағынаса
бассеин
башҡаса
беләм
булмауы
булғанын
водителдәрҙе
демографик
донъялағы
зоналарында
зонаһында
итеүселәр
кандидаттар
кантонында
маршрут
мәҡәлә
оса
отчет
оҫта
пенсионерҙар
раиондар
санитар
сағыштырмаса
сәскәләре
сәхнәлә
табыш
тапшырған
тасср
ташҡын
теркәлмәгән
торлаҡты
торошоноң
тоҡомо
тыуҙы
төшөрҙө
энергия
яртыһынан
яуыз
яҙырға
ҡатындың
ҡеүәтле
һарытау
һыуыҡтар
әсәләргә
әхмәтов
##k
##ам
##гәс
##дәрен
##иәт
##ланмаи
##лик
##лырға
##лыҡтан
##мдың
##пания
##рендә
##уаль
##ураһы
##ыны
##ья
##ҡлы
##әл
##әп
07
1921
com
алһыу
анализ
африкала
берҙәре
булдым
ведомствоның
вәғәҙәләи
дизель
залда
илдәр
илдәрҙән
ирекмәндәр
ирәмәл
ите
иырын
иырҙарын
иәшендә
күктәге
күрәбеҙ
кәмендә
методик
михаиловка
мөнәсәбәттәре
мөхит
продукттары
проекттарҙы
реитинг
рудольф
сервис
сәиәхәт
тантанаһында
танылыу
тапты
томан
указ
филология
финалда
формалаша
хеҙмәтселәре
юлда
ямғырлы
яғына
яҡынлаша
яҫы
ҙурыраҡ
ҡомартҡы
ҡырағаи
ҡырлы
өдату
##ләгеҙ
##мин
##ченко
##ҙәге
##ҡты
104
баирамды
балаларын
баҡса
булдыра
булғас
водитель
илдәге
инфекцияһы
иыиылышта
иылан
иылдарға
килеү
куибышев
маиҙандарҙың
математик
мәҡәләләр
онкология
орд
профсоюз
самолет
суммаға
таулы
туры
төркөмөндә
уҡыусыларының
хәҡиҡәт
шарында
шыма
ырыу
юлдарҙы
яҙыу
ғәмәлдәге
ҡулланырға
ҡәберлеге
үткәргес
һаҙлыҡ
өаи
өҫтө
##m
##аров
##аттар
##атты
##бе
##беҙгә
##ец
##нер
##оға
##реү
##рии
##сәһе
##тырыу
##фа
##ха
##ҫҡа
##һенән
##һәк
190
1931
альберт
артыуын
аҫтына
бетон
биләне
индереләсәк
иран
иттек
иөрөтөү
иөҙҙән
килограмға
культуралар
мосолмандары
пенсионер
премьера
проектына
свитаһы
сертификат
татьяна
телдә
теләне
тимерлек
тәртибен
төҙөүсе
уинаны
уралда
фондының
шарап
шағирҙың
шәкерттәре
ғүмәр
ҡалдырҙы
ҡарамағындағы
ҡоиоу
ҡотҡарыу
ҡустыһы
ҡушылдыҡтары
ҡылыу
ҡыуаныслы
үтәргә
үҫемлеге
һабаҡ
##банк
##беҙҙә
##иҙың
##лаштыра
##менты
##олит
##ологтар
##селәрҙе
##стат
##шеү
##шкән
##шле
##ье
##һынан
алтаи
ашламалар
ағастар
ағымы
аңлатма
бахи
белдергән
белеп
бүлкәтендә
вич
дауаханала
ды
дәрестәр
израиль
илшат
иҫәпләием
килгәндән
компаниялар
компьютер
континенталь
коринфтарға
көндәренә
көньяҡтан
моторҙар
мәжит
наградланды
осорға
полк
проекттарын
семен
суҡышы
сығарылды
сәи
сәсеүҙе
таныштырыу
тасс
теүәл
тоғролоҡ
туи
туимазыла
тәрбиәләү
төҙөгән
уңышҡа
фаиҙаланырға
филол
финалға
ышанабыҙ
ялан
яҙыусының
яңыраҡ
ғаисаға
ҡалалағы
ҡаҙ
ҡиммәтләнде
ҡунаҡ
ҡыи
үҙгәртелә
үҙебеҙҙе
үҙемде
үҙеңде
үҙәгенә
һөиләп
##анттар
##ица
##лев
##тын
##уын
##ца
06
1905
230
251
273
алғы
америкала
анатолии
апрелендә
армия
арттыра
асср
аңлаи
база
башланыҡ
баҫтырып
белоруссия
боиороҡ
данил
дарыуҙар
дауалана
декабрҙән
документаль
заводтары
изгелек
илдәре
интернетта
иорттоң
иәиәүлеләр
кимәлен
конференцияла
коронавирусҡа
кубогының
күсеү
күсте
көрәше
лирик
муниципалитеттар
мәсьәләләренә
нәшриәтендә
нәҫел
проблемаларын
путиндың
сығанаҡтары
тамашасы
терр
троицк
туранан
төбәктәренән
февралендә
шифахана
эштең
эшҡыуар
юлдарын
яуаплылыҡ
яҙмалағы
ҡабат
ҡалдырған
ҡыҙыҡһына
үҙебеҙгә
һаилана
һорауға
әсфәндиәров
##алдар
##атырға
##евна
##кала
##кии
##лам
##ландыра
##лелек
##мыш
##омы
##орма
##тәрендә
##уиын
##үр
арабыҙҙан
аңлатты
бабаи
башланғысы
баҙары
беренсенән
бирер
вирус
волеибол
газпром
горькии
граждан
дауахананан
илья
иоҡтороуҙың
килешеүе
килешеүҙәр
кимәленә
кис
композитор
конференцияһында
күле
леонид
магнитогорск
мәсихсе
нәҡ
нәҫеленән
орлоғо
оҫтаһы
программалар
социалистик
сәбәпсе
тарихында
ташыу
тигәндә
торатау
төҙөкләндереүгә
фатихалар
ферма
хәүефһеҙ
ында
этнография
эфирҙа
эштән
юғалтыу
ғиб
ғәм
ҡаралды
үткәргән
өднту
өирәнеп
өиөнә
өлкәһенә
##81
##град
##ион
##ония
##птар
##тыр
##ығыҙҙы
##ғыс
##ғәт
##ҙмә
##ҡтары
##әне
1924
авторҙары
арттырылды
ауырыуы
беиек
биҙәлгән
бурысын
бүлә
бүтән
ваҡытын
етештергән
етәкселегендә
еңелерәк
златоуст
индустриаль
иғтибарлы
иүнәлтеләсәк
иәшәүселәрҙең
кантоны
категорияһында
китабының
конгресы
күмер
күмәк
күсерелгән
көнсығышта
марафоны
моңо
наталья
провинцияһы
пәиғәмбәр
рок
рәиес
рәсәигә
сараларында
сыр
сәләм
телдәре
технологиялары
типтәрҙәр
тырыша
төшөрәиек
улын
училищеһы
француз
хаҡының
хеҙм
хеҙмәтләндереү
хеҙмәттә
шартлы
шыршыһы
эфир
ярҙамсыһы
ғарипов
ҡулланған
үрсеи
үткәреүгә
үҙегеҙ
үҙең
үҙҙәренә
үҙәгенең
һаилаи
һауала
һөнәр
әмир
өҫтәп
##зм
##ибы
##иттар
##иы
##иялары
##лға
##ләиҙәр
##ләндерергә
##ри
##рының
##телде
##тта
##ғолова
##үселәр
119
1200
абдуллин
аиға
аиҙан
археология
атыу
ауырыуҙар
аҡсаһына
берләшмәһе
билет
боҙоуҙар
бюджетына
героиҙары
гражданлыҡ
графигы
еңеүгә
ишағыя
канд
карст
коллективтары
компанияһының
концертта
кәметеү
көтәбеҙ
латипов
легендар
лидеры
матдәләр
миҙгеленә
мосолмандар
нух
перспективалы
приздар
программалары
реитингта
сикләүҙәр
тамамларға
таратыу
телевидениеһы
телеканалында
темаһына
территориаль
төрксои
участкаларында
формалары
форматта
халыҡтарҙың
эшләиәсәкбеҙ
ябыу
ғүмәрова
ғәли
ғәлимов
ҡыҙғылт
үҙләштереү
үҫеп
һаҡлаи
һөиләшеп
өлөшләтә
##62
##ii
##is
##n
##гер
##ду
##зия
##иҙе
##ландырыу
##мәле
##ренә
##ряд
##саҡтар
##ста
##тергән
##ышы
##ҙуллин
##һаң
101
135
аинур
аллаһы
арт
аяҙытҡанда
аңлаған
баҫҡан
билдәләиәсәк
бүләге
бөтөрөү
екатеринбургта
ерләү
етәсәк
зөһрә
изделиелар
иолаға
иәшәүселәргә
иәһүдтәр
кисергән
китаптың
лидерҙар
мебель
михаилович
нефтсе
новгород
нояб
ноябрҙән
округына
омск
оҙаитылды
президентын
премиялар
проблемаһы
сиктән
сиркәүе
ташлама
телгә
теләп
теркәлә
тибындағы
тире
төн
төшөргән
ултырышын
уралындағы
флавоноидтар
холда
шиғриәт
ярымшарҙың
ятҡылыҡтарын
ғалим
ҡаиын
ҡалдырып
үткәс
үҙләштерелгән
үҫемлектәре
һаилаиҙар
һынлы
##80
##атлы
##иров
##кка
##ктик
##ланым
##лектәре
##орт
##оң
##рланған
##рлек
##рма
##солоҡ
##телә
##ти
##ук
##уҙы
##ханов
##шты
##ымды
##әргән
155
1913
1914
алдараҡ
ашырыуға
ағаһы
башҡаларҙың
белемле
берҙәмлеге
билдәләиҙәр
денис
дуҫ
етергә
иортто
иғтибарын
иүнәлештәге
килмәи
километр
кирбес
краснодар
курорт
курстар
күренеүенсә
күрҙем
кәметергә
көтөргә
литры
ләп
меңләгән
объекттары
объекттың
оҡшаған
режимын
риф
сәхнәһендә
табыусыһы
тамырһабаҡлы
тауарҙар
телендәге
технологик
тормошон
трактор
туғыҙынсы
урынлашасаҡ
уҡытыусыларҙың
фильмдар
фотоға
хеҙмәтте
хужалығын
экспозиция
ғәфү
ҡаласаҡ
ҡатынды
ҡураисылар
ҡытаиҙа
үтеү
үткәрәсәк
һаилаусылар
һаҡланып
һөиләргә
әнүәр
әғлиуллина
##анов
##дарына
##динов
##ереү
##ииы
##кес
##лгәине
##лина
##никтар
##сыл
##тдинов
##тка
##тыуы
##циялары
##шә
##ымы
##ҡолов
адм
алексеевка
батып
башҡарырға
белмәи
власы
зонаһы
илебеҙҙең
инеп
иолом
ирәндек
кешелә
килер
кирилл
кисерә
кәсептәре
маиҙансыҡта
милләттәр
музыкант
мәктәбенең
наградаларын
никах
ниғмәтуллин
пневмония
призер
приставтары
режимда
сабыиҙар
сиратында
системаһының
структураһы
съезында
сыҡҡандан
сәғәттән
теге
тиҙлектә
ты
уртаһынан
халыҡтарының
хәләл
эшмәкәрлегенә
юлдарында
янғыны
яртыла
ҡағылышлы
ҡолаҡ
ҡорто
ҡырау
үтәи
һуғылған
һөрөнтө
әр
##ах
##бер
##дж
##иҙар
##кция
##маш
##олған
##ттарға
##умы
##хоз
##ҙоң
##үл
##һөҙ
##әтергә
650
алдылар
аҡһыл
баҫыла
билеттар
бурыстарҙы
бүлергә
вакансия
васильевич
динамо
дуп
иленән
итеүен
иүнәлешен
килограмы
композиторҙар
көндәлек
көрәшә
маршруты
мостафин
мәғлүмәттәренә
мәғлүмәттәрҙе
норматив
ололар
оркестр
осорона
оҙатыла
татарстанда
телевидение
тиҫтә
турниры
тәлғәт
уиларға
уртаҡлашты
уҙып
федерация
фестивалде
фәрештәләр
хәтлем
юбилеиы
яилап
янып
ярышта
ярҙамын
яҡындағы
ҡабаттан
ҡаланан
ҡаҙна
ҡаҙылған
ҡыуып
үрсетеү
һаилаған
һепертке
һораиым
һүҙҙәрҙе
##89
##g
##ta
##едияһы
##енция
##зар
##зә
##иылға
##ланма
##леүе
##ллек
##ләсәк
##нды
##селәргә
##скиҙа
##терелгән
##уль
##фуллин
##ылар
асыҡланыуынса
аукцион
аҙаҡ
аҡсалар
бармы
билдәләгән
билдәләре
ветеран
властары
гражданы
диам
ерләнгән
етешмәи
идеяһы
ишембаиҙа
иыиыласаҡ
иылын
иөрөргә
казак
керамика
корея
малы
машиналары
мәсәғүт
наградалары
нәмәне
оиоштороусыларҙың
осраған
оҡшаны
предприятиеларҙың
проблемаларҙы
ролен
системаһына
ташы
төркөмдәре
фаиҙаланылған
философия
финалына
фәндәре
шик
шиғырҙарын
юлдың
яҙы
ғөмүмән
ҡаҙағстанда
ҡыиыулыҡ
ҡышлаи
һораи
һүҙҙәренә
һәләте
өфөнө
##75
##er
##атылды
##график
##дия
##евтың
##иана
##ктор
##ланғаины
##лмаясаҡ
##ләрҙә
##мир
##нттар
##ош
##сағын
##уров
##шеп
##штырыу
##ью
147
1926
акцияға
аралашты
асыҡлау
асыҡлыҡ
башлау
башҡортостанды
бүләкләнә
ваҡытты
визит
гонаһлы
дуҫтары
законға
иванов
иондоҙҙар
ире
иәрминкәләрендә
килеүселәр
кимәлгә
коллективтар
консультациялар
крәҫтиәндәре
күреүселәр
лигаһы
машинаһы
музеиҙар
мәктәбенә
мәрҙәнов
октябрьскииҙа
парады
парктар
планын
приз
рамаҙан
ресурстары
сәғитов
сәғәте
телдәр
температураһының
тирәһендә
тиҙлеге
тренерҙар
турнирҙа
тырышабыҙ
төбәктән
урынын
хужалыҡтарында
хәлдең
шиғыр
штабы
шәхес
экскурсия
эҙләп
ғаиләнең
ҡалдырырға
ҡауырһын
ҡаҙаныштары
ҡунаҡхана
ҡуҙаҡлы
үҫешен
һау
һорауҙарҙы
һыуы
һыуытасаҡ
##p
##ата
##бәт
##ел
##енталь
##иаль
##иек
##малары
##мик
##онған
##раж
##рет
##хмәт
##ьевич
##ют
##ясаҡ
##үм
##әте
124
агентлығының
акцияһында
ант
армияһы
арттырыла
асыҡлаи
ауылдарҙа
аэропорт
балыҡсылыҡ
башҡарылды
баҡсаһын
беиеүе
биология
булғандар
бүлмә
бәшмәк
бөтәһен
ветераны
видео
делегат
евразияның
енесле
еңелсә
интеллектуаль
иәшкәсә
күргәҙмәләр
кәңәшмәһе
көи
максималь
маркалы
министрлығына
музеиҙа
мәғдән
мөлкәт
мөғәмәлә
норманан
оиошторған
радиоһы
сир
сирек
системалы
сорт
съезд
таһир
тексы
торлаҡтың
турҙа
тыиыла
төпләнеүсенең
уиыны
ураҡ
форматында
хаҡлы
хаҡҡа
хистәр
хәҡиҡәтте
шорт
эләккән
эшләүгә
юбилеиына
юлында
яаи
яулаған
ғинуарына
ҡанаты
ҡаҙнаһынан
ҡорал
үҫемлектәрҙең
һалынды
һауығып
һаҡлыҡ
һылтанып
әитәиек
##ара
##енты
##ета
##ланыуы
##лекте
##лоҡ
##мдең
##мәндәр
##нова
##ноң
##ня
##нға
##рылырға
##тдин
##тиктар
##улы
##э
##ңә
##һәң
алкоголь
алышыу
артта
ауылындағы
аҙнаның
аҙнаһы
барлығы
берҙәмлек
бинаһында
бирле
бокс
бүлендек
бәигеһе
вячеслав
гастролдәр
гектарға
губернаһы
думаһына
евр
ере
ерҙән
журналистика
заказ
илдәренең
илебеҙҙә
институт
исемлектә
ителмәгән
иыиылышҡа
иылғаһында
иҡтисадсы
иәшкелт
иәштә
иөрөткән
коммерцияға
күптәре
күрһәттеләр
көиләү
көнсығышында
мәскәүҙәге
мәшғүл
патриотик
пландар
процесы
пункт
рафаэль
реитингы
сорты
стратегик
студенты
сумдырылыу
сығарып
сығарырға
талаптар
тамамланырға
татарстандың
телде
теләр
технолог
тирмән
түләүҙең
тәжрибәһен
тәрбиә
тәртипкә
төшөп
төҙөлөп
украин
урындарҙы
хаҡтарҙы
чемпионатының
эфирға
ялға
яҙманан
ғәиебен
ҡараясаҡ
ҡушҡан
ҡыиыу
ҡыҙҙарҙың
үҙәктә
һигеҙенсе
һуғышта
һуҙылған
һынап
өиҙән
##би
##вы
##ез
##жда
##илов
##лашып
##лашырға
##лектәргә
##лыш
##ләшә
##маиынса
##нал
##нде
##олоҡ
##салары
##сының
##тым
##тәренең
##хаҡ
##хия
##чев
##штар
##ыс
##ыға
##ҡаи
##ҡәт
##үгә
##әиеп
##әиә
##әли
05
107
1927
академияһының
акцияһын
америка
арыҫланов
ауылдан
аҙаҡҡы
барышын
башланыуы
бдау
беренсел
бирмәи
булдырыуға
булғандарҙың
бығаса
василии
велосипед
ветеринария
граждандарға
дәртләндереү
евро
егерме
елистратов
етештереүселәр
еңеүселәрен
зона
ишағ
иыиынтыҡ
иүнәлештәре
иәшәибеҙ
килгәс
кубометр
көньяғында
көтәләр
лаборатория
мәсихселәргә
нефаз
оркестры
пенсиялар
проблеманы
программаның
раиондарынан
сочи
сәбәптәр
тамырҙары
тикшерәсәк
тренерҙары
тыуып
төбәгендә
төньяҡтан
төнөндә
төҙөп
ултыртылған
федерацияһында
фильмды
фронты
хужалыҡта
ян
япония
яңғыраи
ғәжәп
ҡоралдары
ҡыиын
ҡыҫҡара
һабантуиы
һораған
әиләнде
әиләнә
әминев
әҫәр
өлгөлө
##60
##76
##83
##86
##la
##u
##буллин
##дарҙан
##дәрҙә
##енттар
##игы
##исов
##иға
##кәс
##ловка
##ләнеләр
##мға
##мәгеҙ
##нгә
##ртты
##ртылған
##талар
##тамаҡ
##таһы
##шәр
##ылырға
##ҙиев
##ҡас
106
114
актриса
алырбыҙ
атаиым
ауырыуҙары
аэропортынан
башланым
башҡортса
беиеүсе
берәиһе
буласағын
булмаҫҡа
бәлиғ
вакцина
ватанды
воронеж
гәзитенең
декабренә
ебәреү
егете
зал
зәинәб
иблис
игенселәре
инвестицияларҙың
иондоҙҙары
иоҡторған
иыиылышына
иылытасаҡ
иылҡы
иырҙары
карантин
кемдер
кимәлендәге
компаниялары
ланцет
мду
мөмкинлеген
ндә
нефтсеһе
ниһаиәт
номинация
нөгөш
операторы
отставкаға
ошоға
парламент
республикабыҙҙың
сығанаҡ
сығымы
сәтләүек
тапшырҙылар
тигәнде
тикшереүҙәр
тикшерҙеләр
тормошта
торғаины
тоталь
тыиылған
түбәнәиә
тәғәиенләнә
төлкө
фекерен
фондына
штаб
шуныһы
шылтыратыу
шөғөлләнергә
яза
яратам
ғәлиев
ҙең
ҡалынлығы
ҡанаттары
ҡарарҙы
ҡат
ҡағылды
ҡоима
ҡулланып
ҡырымда
үҙгәртергә
үҙәктең
һалдат
әсәләре
әҙерләне
өҙөлгән
##бау
##евскии
##иада
##кп
##кты
##кө
##лен
##лмәгән
##лығында
##оны
##рова
##серы
##сса
##ург
##урин
##циональ
##ылып
1910
1912
августан
авиакомпанияһы
акцияның
акцияһына
алынасаҡ
аҙнанан
аңлашыла
баиыҡ
балсыҡ
белдерҙеләр
бирҙеләр
булыуынса
бүлектәре
бәиләнештәрҙе
ген
донъянан
дым
еңелде
затон
инвестицион
инструменталь
иортона
иылдарҙағы
иҡтисады
кеигән
киев
килешеп
килтерегеҙ
корпус
күсерелде
күҙҙәре
маиҙансығында
миграция
миллионлы
мода
нан
округының
паркта
проектында
рәхмәтле
сикһеҙ
ст
страховкалау
тарихына
тауы
текә
тотолған
туҡтата
тө
төмән
төшөмдөң
төҙөүсеһе
ултырып
урманда
уҙғарҙы
фестивален
фәрештә
хаҡындағы
хоҡуғын
хәлендәге
ысулдары
ыуылдырыҡ
яланғас
яҡуб
ғәзиз
ҡағыҙ
ҡот
ҡулланылышҡа
ҡунаҡсыллыҡ
үҙидара
һаилауға
һауаның
һаҡсыл
һүндереү
әителгән
әҙерәк
өигә
##34
##63
##67
##os
##акир
##бир
##бол
##бәков
##гияһы
##едия
##еттар
##жев
##зина
##ине
##кс
##па
##пирт
##ропик
##шкә
##ғынан
##ғәли
##ҙҙәре
##ҡаһы
##әитергә
##әре
##әҫ
109
аномаль
аппараты
артист
ағза
батшалығы
белогорск
гимназия
дуҫы
дәүмәле
енә
идея
иолалары
иолаһы
иомғаҡтар
исемлеген
иттем
итәиек
иырсыһы
июленән
комсомол
күләменең
күтәреүселәр
күҙаллаи
кәрәклеге
кәүҙәһен
көрәштә
льготалы
маҡтаулы
министрының
нефтехимия
ниңә
пушкин
радио
раевка
ростов
сантиметр
сараларҙы
сикләнә
сират
системаһында
табып
теҙмәһе
тотороҡһоҙ
түләи
төҫлө
уртаһына
уҡыусыларҙы
уңдырышлылығы
уҫы
фильмдың
халыҡтан
хеҙмәткәрҙәрҙең
хәстәрлек
ысул
ышанып
эдуард
эскерһеҙ
эшләмәи
юлдарҙың
юллана
яратырға
яуапланы
яҡтар
ғүмәров
ҡалмаи
ҡалманы
ҡалыр
ҡағиҙәләре
ҡытаиҙың
ҡыҙға
үле
һаиланы
һаилауҙарҙа
һеҙҙә
әүерелде
өдси
##96
##бан
##вка
##еф
##иадаһы
##илдә
##ияһын
##ламаи
##лауға
##ллин
##ләндергән
##ләштерелгән
##мәр
##нес
##оген
##паһы
##рткән
##сенең
##това
##уа
##усылар
##химик
##циялау
##шат
##штәр
##штәре
##ыма
##ҡын
##ҡып
##әинетдинов
108
175
1916
mail
аиыу
акцияны
алыуы
архитекторҙар
барыбер
баҫылды
беиеклектә
бинаның
быяла
бөрөлә
вируслы
гвардия
гимназияһы
гөлназ
дымлы
етештереүҙе
икеләтә
инициаторы
инфраструктура
ирҙең
иткәнсә
иыиылышында
иылдам
иылының
иылыраҡ
канал
капиталын
кемдең
килтерелә
китапты
киңәитеү
компенсация
конкурсты
контракт
күләмдәре
күскән
күҙәтелгән
көсөргәнешле
муз
музыкаһы
мәскәүҙән
мөхитте
наградаға
науруз
осоштар
парламентының
пациенттар
польша
программаға
пугачев
раҫлаи
ремонтлауға
сағылдырған
советында
сода
сәхифәһендә
сәхнәгә
тарихсы
ташҡынға
технологияһы
туплау
түб
түбәнәиеүе
төҙөлөшөнә
указы
ундағы
урамдары
учалыла
уҡыусыларға
филос
фин
флешмоб
формаһындағы
хаҡтары
хор
янаи
яһап
ҡалаларынан
ҡора
ҡошсолоҡ
ҡыла
үзбәк
үҙенсәлектәре
үҙенән
һаҡлаусылар
һуңында
һөнәре
әхлаҡи
әхәт
әҫәрҙәр
өлгөргән
##84
##аф
##дарса
##елле
##ерт
##здар
##зов
##кттар
##лаибыҙ
##лауынса
##лағас
##лле
##логтар
##лыҡлы
##ләшергә
##ләшеү
##ләштерергә
##ондың
##оуҙыш
##скииҙар
##сты
##сҡан
##сәген
##тура
##тәренә
##шып
##шәк
##ғым
##үт
##әсәкбеҙ
08
1774
1897
1907
550
аа
авгусында
автобусы
алдым
артып
асылда
атабыҙ
балаларына
баҡсаһында
белеме
бирегеҙ
бәләбәиҙә
бөгөлмә
гел
грек
губернаһында
дауахана
дворян
диплом
дисәтинә
етәкселәренең
заводта
зәңгәр
ивановка
именлеге
инновация
иркен
исемдәр
иҡтисадтың
иүрүҙән
кеиеҙ
кластар
кукуруз
көсөн
көткән
мулла
мәҙәниәтен
олимпиадала
педагогик
продукцияны
продукцияның
рәми
ситендә
средстволары
субъекты
сөсө
талантлы
татлы
теркәлеү
тотондо
тыуҙырған
төрлөсә
төрҙәрен
удмурт
унитар
уҡыуҙары
фильмын
хоҡуғына
хуш
хәиретдинов
шәфҡәт
элгәре
эшенең
эшкәртелгән
юлды
яҡыны
ғәниев
ғәскәрҙәре
ҡорамалдары
ҡоролмалары
ҡыҙыҡ
ҡыҙҙарға
ҡыңғырау
үҫтерә
һиндостан
һөҙөмтәләрен
әүҙемерәк
##18
##20
##64
##iii
##ium
##вин
##гр
##ест
##ея
##иәр
##ктә
##кәр
##ланыр
##легенә
##льскии
##ләндереү
##ләнмәи
##ләренең
##мал
##мдары
##нь
##олоу
##ртылды
##сене
##сер
##строи
##сҡа
##тмә
##уз
##хманов
##шева
##ҡырып
##ҡыстар
##үҙәр
##һағыҙ
##һығыҙмы
##һәм
##әгән
03
126
автоинспекцияһы
актерҙар
акциялар
артыуына
асып
аңлау
барлығын
барышы
басиров
батырлыҡ
баҡсаһына
берләшмәләр
биләмә
бюджетҡа
ветерандарға
властың
геннадии
граждандары
грипп
датаһы
дәресе
етеүе
етмәгән
еңеүселәрҙең
иүкә
иүнәлешле
иәмғиәтте
иәмғиәттең
иәмәғәтселек
иәнекәев
керҙәшлек
комитет
комплексының
күмәкләп
күрмәгән
күҙе
лигаһының
маиҙансыҡтары
мартына
минән
орск
осоу
осраҡтарҙа
отто
поляк
популярлыҡ
резервы
сараларҙа
сағылыш
сифаттар
студияһы
теленең
толпар
трек
туғанлыҡ
тырышлыҡ
түләүгә
тәжрибәле
тәмәке
тәрбиәләи
төркиәнең
төркөмдә
улаиһа
утҡа
фирма
хаиуан
хаты
хореография
хәсәнов
шар
шатланып
шиғырҙары
эшләмәгән
юлдан
янғантау
яҡупов
ғабдулла
ҡатындар
ҡышын
ҡөрьән
һаилаусыларҙың
һуңғараҡ
һөиләнеләр
өлкәһенән
өфөләргә
##25
##40
##94
##атҡан
##аһын
##бар
##дир
##енов
##иан
##иль
##индар
##иологик
##кина
##ланығыҙ
##легенән
##лылар
##лән
##ләүҙәр
##ми
##млы
##мпания
##мәс
##нгән
##ора
##поль
##ралар
##ртҡан
##тегеҙ
##цов
##чик
##чук
##штары
##ште
##ғо
##ҙарҙан
##әинуллин
##өндә
128
136
165
279
автобустар
арина
асыҡларға
аҙнаға
баирамдың
башлаибыҙ
беребеҙ
беребеҙгә
биишева
биналар
биреүҙә
бурысты
буяу
быуатта
бүлеште
бүре
бөгөлгән
бөжәк
дата
диагностика
ерҙәге
еткереү
имам
имен
инфекциялы
иорттарына
иорттарҙы
ихтималлығы
июненән
иғтибарһыҙ
кварталында
комитетында
компанияның
контролгә
концерттар
корпорацияһы
күккә
күренеп
күтәрелеүе
кәңәштәр
көслөрәк
көсәиеүе
лаб
метражлы
минзәлә
министрлығынан
монахлыҡ
мортазин
мөрәжәғәттәр
нәшриәт
осҡос
оҙаҡҡа
оҫталығы
оҫтаханаһы
римдарға
рфа
селтәрҙәре
составын
сәк
сөләимән
теләһә
теоретик
түгелме
төбәктәренең
төбөндә
төркөмөнә
утары
уҡсылар
уҡыусыларын
фекере
хаиран
хеҙмәтенең
хеҙмәтенә
хәбәрһеҙ
шаһиты
экспорт
эшләүен
эштәренең
юниорҙар
янғынға
ғинуарға
ҡаитырға
ҡалғандары
ҡәрҙәштәргә
үрнәк
үҙгәргән
үҙгәрмәи
һаҡлауға
һеҙҙән
һунарсылыҡ
әҙербеҙ
әҙерләнде
өлөшкә
##77
##99
##аҫ
##енгән
##енд
##измдар
##каны
##кен
##лаштырырға
##лон
##мдар
##нты
##огы
##ория
##оя
##оғоҙ
##рер
##рис
##рмаи
##рәге
##сив
##тон
##ттарына
##тында
##улпан
##уляр
##фи
##цит
##яз
##яна
##ғужин
##ҙле
##ҙыр
##әмәи
##өтөү
артында
асыуҙа
атаиҙар
аяҙ
балыҡтар
барылған
башҡорттарҙа
баҙарҙа
баҫмаһы
биләмәһен
боҙолоуы
былтырғыға
быуаттың
бүлде
бүләкләнеләр
вадим
грантына
дамир
девизы
екатерина
етештереүсе
етештереүҙә
иванова
илдәргә
илдәрҙең
интерактив
исмәғил
иәмғиәтендә
иәшенле
кадастр
килеүен
кисен
климат
ком
комиссияһының
конкурстарҙа
культураларының
күктә
күрһәткестәргә
күсергә
күҙалланған
кәзә
ландшафы
миллионға
музыканттар
мәхмүт
мөрәжәғәтнамә
нескә
ниәтләибеҙ
оборона
оиоштороуға
олимпиада
оя
пособиеның
продукты
прокуроры
раштыуа
революцион
ректоры
роза
роман
рәссамдары
сана
сенаж
сменала
соҡор
статусы
талаптарына
тарала
ташлы
тормошонда
торошона
тулыланды
тулҡын
тэфи
тәғлимәт
тәҡүә
тәңкә
төркөмдәр
төшөү
урындарға
уята
фарсы
цехтары
шатбыҙ
шахмат
шәкерттәренә
шәһит
эшкәртелә
ябылған
яҙында
яңылыҡ
ҡаинар
ҡалдыра
ҡурсаулығы
үҙгәртеү
үҙгәртә
үҙегеҙҙе
һорғолт
һөҙөмтәләргә
әкиәт
әсәи
әҙерләиҙәр
әүерелгән
өиәҙенең
өлгәште
өҫтөнән
##61
##68
##72
##92
##аиҙы
##алды
##ациялау
##бин
##данов
##еленә
##еләр
##етик
##иналар
##исы
##кенә
##ландырыуға
##леүсән
##лович
##лөккә
##мәһен
##овскии
##оғо
##рала
##риз
##рлау
##рс
##рынан
##сыға
##сәктәр
##терҙар
##ттарҙы
##тҡыс
##уҡ
##шло
##ылмаи
##ындағы
##ыусы
##ғып
##ғыҙҙа
##ғәле
##ҫма
##әизуллин
##әров
113
118
142
1908
1909
2500
270
аиырма
актуаль
аллеяһы
алыуҙары
артем
асфальт
асыҡтан
аттар
аҡсаһы
баимаҡта
баҙарындағы
белдерәм
билдә
биреүселәр
битараф
бригадаһы
булғанға
бүлмәһе
бүләккә
бәиән
бөртөклө
варианттарын
вднх
владимирович
градустан
губкин
евреиҙарға
захаров
зирәклек
игелек
иерусалимға
израилдәр
икәүһе
ильяс
иманы
иорттарҙа
кабинеты
карта
кешеләрҙән
комиссиялары
конкурсын
коэффициенты
күтәреләсәк
күҙәнәкле
көрсөк
маиҙандары
малаиҙар
мансур
марафон
матч
минеңсә
мс
мәктәптең
мәхәллә
мөнәсәбәттәрҙе
нестеров
никахҡа
оиошманың
осоп
павловка
партияһының
поезы
положение
предприятиеларына
процентында
рекорд
республиканы
саит
сөгөлдөрөн
тамашасыларҙы
тартыу
тикшереүгә
тирәләи
тәбиғәтте
тәрбиәләнә
тәртиптә
төбәктәргә
төшөрөп
уиындарын
участкалар
фильмының
хеҙмәттәргә
хужалығына
хәмит
цехы
чемпионат
шаиба
шаһитлыҡ
энергияһы
эпосы
юстиция
яна
янғындан
яғыулығы
яҙылырға
яңыртыуға
ғәиепләнеүсе
ҡасандыр
ҡороу
ҡырғыҙстан
ҡышҡа
ҡәбиләләре
үҙәктәр
һыубаҫар
һөнәрҙәр
әсе
өирәнгән
өфөлөләр
##арҙа
##ект
##итер
##их
##леи
##манова
##мыҡ
##наған
##нис
##нои
##олдо
##ологтары
##ондар
##орон
##пан
##паркы
##рбеҙ
##реләсәк
##стары
##тель
##тмәи
##унд
##феи
##шырға
##ыуҙар
##ҡҡан
##ңа
##өгөҙ
##өлгән
04
09
117
1800
1812
1904
276
алданған
александровка
альбина
арттырҙы
асыуға
ахыр
аҡсаға
барыусы
башкортостан
баһаланды
белдерә
биреүгә
биреүҙе
биҙәи
буламы
булмаҡсы
бүлкәттәрендә
бүләкләне
бөтәһенә
владислав
гектарҙы
григории
динамика
документтарҙы
ерҙәр
етештереүселәре
запасы
земфира
игеҙ
идаралығында
имандаштар
император
инвестор
иыллыҡта
иырлаи
иырсының
иыһан
иыһаншин
квалификациялы
күрһәтмәләр
күтәрҙе
көнбаиышында
көньяҡҡа
көсһөҙ
көтөлгән
латипова
лицеи
ләлә
маиҙанды
материал
маҡсаттар
мордва
мәләүездә
николаевка
оиошмаһының
округ
орлоҡтары
оҙаҡламаи
петрович
пилат
призерҙары
прокуратура
рафаил
реконструкция
рекорды
репертуарында
салют
сағыла
субъекттары
сығырбыҙ
сәбәптәрен
табиптары
тамамланғас
таныштыра
тауарҙары
тв
телерадиокомпанияһы
техникумы
тим
тупраҡта
төплө
төҙөлөштө
университет
урындарында
урынлаштырыла
уҡыусыларына
фаиҙаһына
факультетын
фермаһы
хаиуандарҙың
хәбәрсеһе
шакиров
шат
ырымбурҙа
эшмәкәрлегенең
янғында
япон
яҙманың
ҡотҡарған
ҡырымдың
ҡырҡа
ҡәрҙәштәрҙең
үлсәү
һалымдар
әителгәнсә
өлөштән
##87
##аба
##аиған
##атҡа
##балар
##во
##вт
##втар
##гәрәев
##дарының
##ела
##ение
##ерҙары
##ешә
##жер
##зе
##ига
##иәтен
##лаиҙар
##ламаған
##лет
##лияла
##ляция
##ләнгәине
##ләтеү
##ләште
##нҡы
##окаль
##паҡ
##рап
##релмәгән
##рмәи
##рҙө
##си
##скә
##тал
##ттәре
##тыра
##тыҡ
##шор
##ыҙ
##ғыраҡ
##ҙәренә
##ҙәрҙә
##үк
##үлән
##үсән
##һәгеҙ
##әхмәтов
##өм
##өп
111
218
320
vii
автомобиле
агентлыҡ
алыусы
алыуҙа
архив
африка
ашты
аҡыл
бабиков
банкында
барығыҙ
башлығын
башлығына
баһалап
бдпи
булыусылар
бүләкләнәсәк
герои
дауаханаһының
диагнозы
ебәрә
ерҙең
ефес
еҫле
журналисы
заказнигы
заһир
зәкәриә
ижадын
ижадына
инкубация
инәсәк
иорттарға
иорттарҙың
исемлеккә
иткәндәр
иылғаларҙың
иылҡысылыҡ
иәрминкәлә
иәрәхәтләнгән
иәрәхәттәр
иөн
каналында
кварталда
килтерелде
класҡа
кәңәшмәһендә
көскә
лада
милләтле
мтс
мөһимерәк
нимәнән
осраҡтар
партияның
пехота
пилот
планды
политехник
полкы
пособиелар
проектлау
реабилитация
розалиә
рфакультетың
сантиметрға
сарҙы
сағында
советнигы
сәләмләне
телдәрҙе
трамваи
тулыу
төркөмөнөң
төрөн
уиланыу
урындарын
уҙғарырға
фотоһы
хикәиәләр
холл
хәмитовҡа
швеция
шәкерттәр
экспортҡа
эләгә
эшләүселәр
яңылыҡтар
яңыса
ғибрәтле
ғәмәлдәр
ҡаитарыла
ҡеүәтенә
ҡоролтаиының
ҡоролған
ҡушма
ҡуян
үлеме
үлемесле
һыуҙы
һөиләшә
һөнәрселек
әҙерлеге
әүҙемлек
әүәлгесә
өлкәләге
өмәһе
##en
##аева
##аита
##алдары
##атр
##атып
##аяҙ
##гәндә
##гәрәи
##ди
##елергә
##еров
##имә
##индың
##ировка
##иты
##иҙеү
##кторы
##лим
##лит
##ләндерелә
##ләнергә
##маҡлы
##мент
##менттар
##ноз
##оз
##олорға
##оник
##парк
##пия
##раль
##рбыҙ
##ресс
##рополь
##ртыу
##теле
##ужин
##уған
##уҙа
##цияһын
##шыу
##ылмаған
##ынмаи
##ғар
##ғыу
##ҙәренсә
##һылыу
##әмәгән
##әнәк
##әсәктәр
116
1915
абзацты
аилығы
аиырмалы
алыуҙы
арба
ауырыған
ашыуыраҡ
ағзаларының
аҡсаның
башлағандар
баҫманың
берләшкән
бизнесы
битләүҙәре
бәиләнешкә
вертолет
викторович
виртуаль
германияла
далала
директорҙар
еңеүсене
зөфәр
икенсенән
илендә
инспекцияһы
иткәине
иөкләмә
китеүе
кпсс
краиында
күргәҙмәһен
лауреат
малсылары
мария
менделеев
мәҙәниәтенә
мөхите
наградлау
назаров
нығытырға
органдарына
орлоҡтар
осрашыуға
отрядына
перинаталь
перспективалары
пландары
пластик
покровка
проспекты
психологик
революцияһы
режим
ремонтҡа
рима
рәсәилеләр
сараларының
сиктә
солисы
структураһында
сәбәбен
сәләмәтләндереү
сәскәле
тергеҙергә
тикшерәләр
торос
транспортында
туплаған
туғандарының
туҡаи
тәлгәш
төбәктәрҙең
төшөрөлә
уилаибыҙ
уиында
умартасылар
усадьбаһы
уяу
хеҙмәтләндерә
художестволы
хәиҙәр
шылтыратыуҙар
эрнст
эшкәртеүгә
эшләүе
эштәргә
эшҡыуарлыҡты
яры
яуаптар
яҙыусылары
яҡшылар
яҡшылыҡ
ғәиепле
ҡалаһындағы
ҡалып
ҡаҙнанан
ҡунаҡтарын
ҡыяҡ
ҡыҫҡартыла
үҫешенең
һаҡмар
һирәкләп
һумы
әкренләп
әҙерләүгә
##10
##82
##ада
##арии
##аһында
##баевтың
##бов
##вер
##еограф
##етика
##ешкән
##иация
##илә
##имон
##ктив
##ктәре
##кцияһы
##лауҙар
##лоҡта
##лтә
##мат
##миән
##мәү
##оиола
##октар
##пром
##пы
##ретдинов
##рылмаған
##сын
##ся
##ттәр
##тырылған
##тәи
##уб
##узин
##уков
##урс
##хим
##ылыу
##эр
##һар
##һеңме
121
122
138
145
1901
абс
автотранспорт
аиыралар
алмаиым
алмаштырырға
ауылынан
аэропортының
башаҡ
башҡарыласаҡ
башҡарып
береһенең
ботаника
боҙған
бүлексә
бәигенең
водителдәр
вьетнам
вәғәзсе
газета
гастролдәре
географик
жанр
загс
илгиз
институтының
иомағужа
исемлек
истанбулда
ихтыяр
ишеткәс
иырсылар
кескәи
кешелек
коррупцияға
күргәҙмәгә
лагеры
мариҙар
маркс
махсуслаштырылған
меңе
милеккә
мишәрҙәр
миҙалға
монтажлау
мәсихкә
наградаларҙы
ноябренә
осрашасаҡ
педагогы
поликлиника
полина
производствоны
прокуратураһы
резерв
респиратор
риза
рәсәиҙәрҙе
рәхмәтуллина
сараларға
секция
семинары
сентябренә
смирнов
спектаклен
срогы
стадионында
сәсә
таныштырҙылар
ташламалар
телдәргә
техникаһын
тиҙлек
торна
тулды
тур
туризмды
тырышҡан
төбәктәрҙән
төҙәтеү
уи
уинау
урмандар
уртаҡлаша
фаиҙаланған
филармонияһында
фондында
форумға
францияла
хәлендә
хәҡиҡәткә
шафиҡова
шифаханаһы
эиәһе
эшләгәндәр
янған
яңыртыла
ҡоралы
ҡотлау
ҡуҙғатылды
ҡыибат
ҡыҙылъяр
ҡыҙыҡаи
ҡәбилә
үҙгәрмәгән
һыуҙың
һүндерелгән
һүҙендә
әиләнгән
##37
##49
##b
##ад
##аж
##аулыҡ
##бирҙин
##быр
##даш
##екция
##емә
##имдан
##инскии
##иол
##истика
##итория
##лауы
##лекция
##лелеге
##ләгәндә
##ләмәи
##метдинов
##нерҙар
##олағы
##ологияһы
##оры
##отехник
##рам
##рҙәр
##рөп
##ссаһында
##ссия
##сәр
##талары
##тырҙы
##тығыҙ
##уд
##уҙан
##ыуға
##эз
##ҡҡа
##әләттәрен
##әғ
02
133
156
210
авторҙар
авторҙың
алыуын
артына
ауылдарында
ауырыусылар
ауырыуҙың
башлыҡ
беиеүҙәр
беләһегеҙ
беренсеһе
бикбаев
биләгән
биләмәләрен
бинаны
биологик
бул
бурысыбыҙ
быуаттар
бюроһы
бәиләнеше
бәхетһеҙ
бөгөндән
вакансиялары
властар
водителе
вуздары
вәкиллеге
гр
декадаһында
доклад
донъяны
журналының
законды
зонаһына
имән
иҫә
иәмиғ
иәмғиәттә
иәнле
иөкмәтелде
иөҙгә
картина
кв
командаһының
күтәрә
күҙәтеп
көкөрт
литр
маиланған
медицинала
меңлек
модель
мотор
муиыны
мәғәнәһендә
объектта
оҙатылды
палатаһының
паркын
партиялар
приют
процесс
реклама
ришат
роле
рәхимҡолова
рәүеше
семак
сиге
синтетик
сирлеләр
студенттарҙың
сәсәндәр
таныша
тимирязев
тороуы
тыл
түләүҙе
тәртибендә
тәүгеһе
төҙөлөшлө
уллыҡҡа
ултырма
урамда
уҡыясаҡ
фестивалгә
форумды
фәне
хаталар
хирург
хөсәиенов
шаиморатов
ысулдар
эконом
эләкте
эпидемик
эшләр
эҙемтәләрен
эҙләиҙәр
ятҡылығын
яуызлыҡ
ғәбитов
ҡадиров
ҡаиғыһын
ҡатынға
ҡорамал
ҡорбандар
ҡорһағы
ҡотҡара
ҡытаиға
ҡыҙыҡһындыра
ҡәбиләһе
һабантуиҙа
һалыуға
һатыуҙы
һуғып
һуҡыр
һыуыта
һөткә
өлгәшә
өлөшсөләр
##rb
##актик
##алыҡ
##аһына
##бдрахман
##гаров
##дырылған
##екмә
##енеп
##жан
##иза
##имы
##ионы
##исин
##ифа
##иҙуллин
##киҙа
##ктар
##ктары
##лауығы
##лыша
##ләрендә
##мбәтов
##мле
##мут
##наи
##нко
##няһы
##олос
##омдары
##омия
##орд
##рик
##сәгенә
##тация
##терер
##туған
##утов
##фестивале
##цияға
##цкии
##ыбыҙға
##ырылды
##ыһы
##ғыһыҙ
##ғәлиев
##һона
##әитә
##әүле
01
123
127
152
1891
1898
1911
арттырып
арғаяш
асҡан
ауылының
аҡрынлап
аңлап
балға
банктар
бармаи
барғанда
башҡарасаҡ
баһалау
беребеҙҙе
берәүһе
билдәләр
бинаһына
бура
вил
вәхитов
джаз
ебәрелде
етештереүе
еңеүе
идеяны
изоляция
иоҡа
иоҡтороусылар
ихтыярын
иыуан
иөрөтәләр
иөҙөм
канада
килдем
кимәленән
конституция
красноусол
кредиттар
кремль
кубогын
кхл
күпмелер
күтәреп
күңеленә
кәримова
маиы
маиына
мәмериә
мәҙрәсәһендә
нигеҙен
нигеҙҙәре
номеры
объекттарын
оиоштороуҙа
орлоғоноң
орлоҡло
первомаискии
премьеры
призлы
проблемалы
раббыбыҙ
раиондарының
рбк
редакцияһы
рухани
рәсәиҙәрҙең
саитынан
селтәрҙәге
сирләү
спектаклде
сталин
темптары
теркәгән
теркәлергә
тибы
тотонолған
туиына
тулған
турнирында
тырышып
түбәһе
тәмле
тәҡдимде
тәҡдиме
төрмәгә
уилаған
улының
уңышты
фермерҙар
философ
хакимиәтенә
хәрәкәтен
швеицария
шәжәрә
экспо
электән
элемтәһе
юлаевсылар
ятҡылыҡтарында
яуған
яҡтыртыу
яҡшыртыуға
ғаиләһендә
ғәҙеллек
ғөбәиҙуллин
ҡатаи
ҡаяға
ҡулланма
ҡушылып
ҡылыс
ҡырҡыу
үлемгә
үҙгәрмәиәсәк
үҙләштерелә
һаилаусы
һөиләгән
һөиләү
һөрөлгән
әңгәмә
өмэпб
өмәләр
өсәүһе
өҫ
##71
##88
##93
##ra
##аков
##ацияһы
##волюция
##др
##дра
##дәрендә
##еиҙар
##енеү
##ео
##еһе
##зи
##итов
##иҙулла
##иҙы
##ларынан
##лдың
##легенең
##лылыҡ
##маибыҙ
##нс
##ондағы
##релергә
##рист
##рлана
##рыуы
##рҙәре
##симов
##сылығы
##төң
##унса
##хетдин
##шмә
##ылыуы
##ыуын
##ыңды
##яев
##яла
##ҙиә
##ҡта
##ңлы
##ҫтау
##үрәт
##үс
##әткә
##әүһе
##әһен
##өгө
##өнә
1300
134
163
1735
289
3000
автономиялы
адрес
аламы
алығыҙ
алғандар
алһын
артығыраҡ
асыҡлаған
атыла
ашлама
ашып
ашырырға
аҙымдар
баҫалҡылыҡ
бизнесҡа
булмауын
быраулау
бүлгән
бүлмәләре
бәигегә
ваҡлап
визиты
вәкилдәр
вәғәзләргә
дежур
демобилизациянан
диалог
дсо
дүрттән
емештәр
еренә
законлы
ижт
инегеҙ
интернациональ
итеүселәрҙең
иыуата
иүнәлтелде
иәиҙең
иәштәрҙәге
иөкмәткеле
иөҙө
кавалерия
камиллаштырыу
каруанһараи
кинотеатрында
китаптарына
коллегалары
конференциялар
күҙгә
көндәрен
көрәште
лагерь
маиҙансыҡтар
марк
мг
милиция
миҫалдар
миҫалын
мониторинг
морат
мәғәнәлә
органдарында
редакция
ризыҡ
рәсем
рәхмәтлемен
сатыр
спартак
станислав
судья
тариф
татыу
телеканалының
тиҫтәләгән
туп
тәртибенә
тәфтишселәр
тәүбә
ултыртылды
училищеһында
уҡыуға
феиерверк
фирмаһы
хаж
хәкимов
хөкүмәтенә
чемпионатына
шарт
шикләнмәҫкә
шылтыратырға
шыуыу
шәрипов
ырыуы
элиталы
эшләнек
эштәрендә
эшҡыуарлыҡҡа
яҡшылары
яҡындары
ҡалғас
ҡалҡан
ҡатламы
ҡоролмалар
ҡылырға
ҡәтғи
үлемһеҙ
үҙендә
һаналған
һатҡан
һауыт
һорауҙы
һутлы
һуғыштарында
һүрәт
һәммәһе
һөиәктәре
һөтсөлөк
әл
әүерелә
өлкәндәргә
##28
##46
##47
##c
##ань
##атология
##аһит
##бикә
##боҙ
##дон
##дор
##еге
##елек
##естар
##етелә
##илде
##ира
##ифалы
##ияһының
##лағыс
##лектә
##ләм
##ләнеүселәр
##ләтә
##мдән
##мет
##мәтов
##неры
##нулла
##олоп
##оматик
##оталар
##пкә
##ракцияһы
##роле
##ром
##ртте
##сон
##сәге
##тат
##тдинова
##теты
##торға
##тырған
##улдар
##урлыҡ
##фе
##хетдинов
##хмәтов
##хозы
##штырылған
##шҡа
##ылыр
##ғандар
##әгә
##әиет
132
1903
225
авангард
автобустары
актеры
алкалоидтар
алыуҙың
алышта
асылыуы
атам
атмосфера
аҙға
баилыҡ
баирамдар
барыуы
башлаиҙар
белемен
белмәгән
бизнесты
бирәбеҙ
болондарҙа
булғаны
быларҙы
бөтөнөһө
венер
вестник
гагарин
грипҡа
гүзәллек
дауаханаһына
донор
еңеүсегә
запасҡа
игеҙәк
идаралыҡ
инфекцион
иорттарын
иптәше
ителергә
ишек
иҫкергән
иәһүҙә
календары
каналы
каникулдары
кимәлдән
китапханалар
киңәителгән
клубтың
клубын
командиры
күктән
күргәс
күңелен
лаған
лицеиы
людмила
маршруттар
матбуғаты
миндә
минутҡа
мораҡ
мусин
номер
объекттарҙы
онотмағыҙ
отрядтары
оҙатыу
партнерлыҡ
пенсионерҙарҙың
планлаштыралар
поезд
полицияға
производствола
пьесаһы
раионын
ремонтланған
сертификаттар
спектаклдең
спора
сәғәтенә
таможня
тантаналар
тарбаҡлы
тартҡан
телдәрҙең
теләктәр
тикшереп
тимофеиға
тирмә
томск
тотона
тупрағы
тыңларға
түҙемлек
тәрбиәләгән
төркөмгә
төрмәлә
төҙөк
уинарға
ултырҙы
унынсы
уралдың
финалында
фәхретдинов
хеҙмәтегеҙ
хирургия
хуплаи
хәрәкәтсән
цирк
шарттарына
шуларҙан
шыршыһына
ылымыҡтар
эшләрбеҙ
юлиә
яҙмаға
яҡуп
яңауылда
ғти
ҡапма
ҡарт
ҡатылығы
ҡом
ҡорбаны
ҡорос
ҡулланалар
ҡулында
ҡунаҡтарға
ҡушымта
ҡуҙаҡ
ҡыуандыра
үләндәре
үҙаллы
үҫтереүҙә
һаиларға
һауып
һуңғыһы
һыра
һыуҙары
һыуһаҡлағысы
һөрөү
һөҙәк
һөҙөмтәлелеге
әзербаижан
әминә
әхмәтзәки
өлкәләрендә
өлөштәре
өҫтәи
##36
##69
##al
##f
##h
##адаһы
##аилово
##анан
##арииҙар
##бө
##гө
##енде
##еста
##еңде
##инерҙар
##ио
##ирус
##иҡов
##кент
##ккә
##легендә
##лектән
##лея
##лип
##лышы
##лүр
##наҡ
##нырға
##овҡа
##олоуға
##онтаж
##орфизм
##пова
##рскии
##рыш
##рығыҙ
##салар
##син
##синг
##сияһы
##сныи
##сова
##сыларын
##сыҡтар
##татив
##тия
##ттың
##тһә
##тәрҙән
##тәһе
##уан
##фор
##ча
##шелгән
##шкин
##ъяҙма
##ылғаины
##ынған
##эм
##эф
##ғыса
##ҙҙө
##ҙәт
##ҡаев
##һенең
##өтөлмәгән
144
2022
223
241
360
750
абзацтарҙы
австрия
адреслы
азатлыҡ
алексеевич
алфавиты
алымдар
ауыҙы
ашырыласаҡ
ашҡынып
баиыҡтырыу
башкортостана
баҫалҡы
бдхм
беиеклектәге
белорус
борсои
борсоған
бренды
бульвары
быуынға
бәхеткә
бөтөргә
ваҡиғаһы
венгрия
гастролдәргә
гидрометеорология
гәзитендә
дивизияһы
драматург
дәүләтшин
ебәк
законы
залдары
идеялар
изделиелары
икәнлеге
илдәрендә
илселәр
индустрияһы
информатика
иртәнсәк
исаев
искәндәр
исхаҡов
итмәгән
ишетеп
иыиыуға
июленә
иҫенә
иәигеһен
иәнлектәр
иөрөиәсәк
иөрөп
кампанияһына
капитал
категорияһы
квн
кисереп
киңәиә
клубында
командаһын
командаһында
комиссары
комплекстары
корпусын
күрәм
кәрзине
көрсөккә
көрәшергә
линияһы
ләисән
магазин
мораҙым
мостафа
мүк
мөиөшлө
новосибирск
номинацияларҙа
нормаға
овал
октябренә
осо
осонда
потенциалы
премияның
пункттары
риа
сираты
солтанов
спектаклдәр
ставкаһы
стенограммаһы
сығымдары
сәлимов
тамара
таплы
тарихын
таянып
театраһы
театрҙа
театрҙары
теорияһы
тоиғоһо
торамаһы
тораһы
тоя
тоҙ
трикотаж
туҡтап
тыинаҡ
тәбрикләү
тәьҫораттар
тәғәиенләне
төшөрөргә
төҙөкләндерелгән
төҙөлөшкә
урындарына
участкала
фольклоры
фонтан
фотоһүрәттәр
хакимлыҡ
хәлдән
хәсән
шанхаи
шәиехзада
ышанған
эксперттары
эт
юристар
ябылды
ялтыр
ярлы
яҙмаһы
ғиззәтуллин
ғәзизов
ҡаплау
ҡараибыҙ
ҡарауға
ҡасып
ҡаҙаныштар
ҡорттары
ҡураисы
ҡуртым
ҡыяҡлылар
ҡыҙҙарҙы
ҡәрҙәштең
үлеп
үҙгәртелде
үҙемдең
үҙенсәлеге
һанының
һуғыу
һәикәле
әи
әҙәб
өирәтеү
өлфәт
өршәк
##11
##38
##39
##42
##73
##an
##idae
##араттар
##атов
##атор
##ацияла
##бып
##ган
##гендә
##графия
##гөл
##егеҙгә
##еиҙың
##енка
##есы
##жа
##итик
##ициты
##иыу
##иәте
##ком
##кәү
##ланабыҙ
##лергә
##леше
##лыҡтарҙы
##лыҡтың
##ләренә
##ләшкән
##матик
##мова
##мәиенсә
##нерҙары
##ни
##отник
##проект
##релгәине
##рина
##рит
##рәм
##сеп
##сәнлеге
##тмәне
##тмәҫтән
##удия
##уғаи
##ханалары
##циты
##цияны
##ырып
##ыуыш
##юк
##яков
##ғыҙҙың
##ҙем
##ҡова
##һөн
##әтов
137
154
185
1902
205
http
ufa
абҙаҡ
агрокомплекс
адресына
алина
алмаҫ
арттырылған
архитекторы
атанылар
атлы
ауылдар
ашырылған
аҙағынан
аҡсаһын
башгидрометүҙәк
башҡорто
белгестәрҙе
бешмә
биржаһы
буиындағы
булыуыбыҙҙы
булышлығында
быуа
бәшмәктәр
варианты
вегетация
вәкилдәренең
вәкилдәренә
геология
героиҙар
гэс
дмитриевка
драматик
ебәреүсе
епархияһы
еткәс
запаста
идеяһын
икәне
илдус
иманын
интернаты
ирекмәндәре
ишле
иылғалар
иғтибарға
иәрминкәләренә
карьера
кафе
кисерҙе
киҙеүгә
климаты
колчеданы
командалар
корпусында
күберәге
күсереп
күҙәтә
көстәре
латвия
льготалар
магнит
маиор
малаиҙың
мауыҡтырғыс
маҡсатта
медиа
михаилов
мөхәмәт
нәҙек
оиошмаларының
орви
осрашҡан
офис
предприятиеһында
процесын
раиондарына
ресурстарын
ресурстарҙы
родина
рсдрп
рәхим
рәүешендәге
сараларына
саҡырған
селтәрҙәр
селтәрҙәрҙә
структура
сығымдарҙы
сығыр
сәсән
сәғит
табиптарға
тармаҡта
театра
театрҙар
телефондары
туғандаш
туҡтатыла
түбә
түләүҙәрҙе
тәне
тәрбиәгә
ултырырға
уратып
уртаҡлашыу
фильмда
халҡынан
хк
хроник
хужалыҡтар
хәиерле
хөсәиен
цех
цюрупа
шаляпин
шатлыҡлы
ышандыра
эвакуацияланған
эи
эпос
эскән
этнографик
эңерҙә
ярҙамына
яңғыраясаҡ
ғафаров
ҡалабыҙ
ҡандракүл
ҡарарына
ҡарауы
ҡая
ҡағылған
ҡоласы
ҡоролма
ҡулы
ҡулына
ҡушыуы
ҡылып
ҡылығыҙ
ҡыуыу
ҡәрҙәштәрҙе
һабан
һаҡлаған
һоло
һүрәттәр
һәләтен
әитеүе
әлмөхәмәтов
әмер
әҙерләнәләр
өмә
өфөләрҙең
##95
##da
##in
##ажы
##ак
##алыу
##арев
##аҙыҡ
##баҡ
##боры
##бырға
##гина
##граф
##ега
##еева
##еевич
##елдереү
##енттары
##ерергә
##ереүселәр
##етдинова
##инов
##иология
##ирҙар
##иянан
##ковскии
##лалы
##ландия
##лашыуы
##лектәрҙе
##леты
##лһа
##ләк
##маның
##миндар
##нк
##нск
##онға
##ох
##портты
##расаҡ
##релеүе
##рлаи
##рмәне
##рыласаҡ
##рғыс
##сар
##тиктарға
##тле
##ттарын
##ула
##ументы
##уп
##физик
##циялы
##ыҡлы
##ыҡлыҡ
##ьков
##ябрҙең
##яция
##ғалы
##ғәнә
##ҙөң
##ҡтан
##әиете
##әлләмов
##әнең
##әрҙән
##әттәр
##өтөп
131
148
2024
5000
аралаша
артмаҫҡа
артҡы
архитектор
арыш
асыштары
ауырып
башта
баштан
башындағы
баҫмалар
биҙәиәсәк
бурыстарын
бөткөһөҙ
бөтөрөлдө
ваз
вазифаһынан
вакцинация
ветерандарҙы
виталии
гранттары
графика
дауытов
дирижеры
дтрк
дәғүәселәр
жанры
илһам
имтихандар
ирке
италияла
ихата
иыиыналар
иыиырға
иылынасаҡ
иылғала
иҙел
иҫерек
кадет
камера
кастинг
киртләсле
китеү
комитетына
коммунистик
комплексына
кызыл
күнекмәләр
күперҙе
күрһәтәбеҙ
күрәсәк
күтәрергә
кәбеҫтә
көңгөр
маҡтау
медикаментоз
межгорье
механика
модернизациялау
музеиына
мөмкинлегенә
мөхәррир
мөхәррирҙәре
новости
осош
пет
планда
полимерҙар
предприятиеларҙа
продукцияһының
ре
ролде
руханиҙар
рәт
сабата
сабыиҙың
сараларҙың
селтәр
семинарҙар
сер
сергеевич
сертификаттары
сикте
символы
стипендия
сыуашстан
сығарыуға
сығыштары
тантанала
таныны
тапшырасаҡ
тармаҡтың
тауышҡа
тауҙар
телдәрен
тол
тормошто
тороу
тотонорға
тупраҡтың
турғаи
туғандарын
тыуҙырҙы
тәрәнлеге
тәғәиенләнеше
төньяғында
төҙөүҙә
учреждениелар
уҙғарыласаҡ
уҡытыусыларының
финанслана
фронт
хата
хаттары
холында
хуплау
хәиер
чемпионатын
черниковка
ысындан
элементтары
эстафета
эшкәртә
эшҡыуары
эҙләргә
яндекс
яуыуын
ғәҙәттәге
ҡаитарыу
ҡаласыҡтары
ҡалдыҡтар
ҡапламы
ҡараһыу
ҡарышлауыҡтары
ҡуиыусы
ҡунаҡҡа
ҡушылырға
ҡушып
ҡыр
үбк
үреү
үтәүгә
үҙгәреүсән
үҙәктәрендә
һаиланасаҡ
һаиланмаған
һата
һатыуҙан
һаҡсы
һумды
һөиләшкән
һөҙөмтәгә
әҫәре
өлкәләрҙә
##23
##26
##32
##35
##90
##91
##ae
##акет
##акиров
##антлы
##атылған
##аул
##аҙ
##аҡтар
##браи
##вета
##ганик
##гория
##евтар
##еиеп
##ектор
##еме
##етов
##етта
##еште
##зал
##зведка
##икация
##иле
##инка
##ита
##ициялар
##ициялары
##кая
##кет
##ланыуын
##ласаҡ
##латыу
##лаусылар
##лаштырылды
##лгәс
##ллион
##лҡан
##мала
##маль
##мас
##меистер
##ндары
##нсе
##ограф
##озиция
##ород
##осов
##отив
##пларға
##раның
##сегә
##сына
##таев
##тина
##тмәһә
##ттылар
##ттө
##тына
##хсән
##цияның
##чин
##чков
##ғош
##ғужа
##ҙаи
##ҙыу
##ҡау
##ҡырға
##һым
##әнде
##әнә
##әрләгән
##өи
##өиөш
##өк
##өл
129
1890
азияла
алмашыу
арпа
арғымаҡ
арҡала
асылыш
ауылды
аяҡҡа
ағастан
ағасты
аҙаҡтан
балтик
барылды
башланмыш
башланып
башланғысты
башҡорттарынан
баҡсаларына
баҫты
баҫтырыуҙа
бикбулатов
биреүҙең
бирәм
болгария
болон
быуаты
бөтөрөргә
водителдәргә
вәкилдәрен
геологик
григорьевич
гто
даруғаһында
делегацияһының
думаһында
дөрөҫөн
емештәре
ерҙәре
еткерергә
етәксеһенең
журналистарға
зы
икеа
илек
инициативаһы
иртәрәк
исәт
ителгәнсә
итһә
ишектәрен
ишеттерҙе
иөҙөндә
ка
каникулдарында
килешеүҙе
килтереп
кимәленең
колхозында
команданың
кондитер
конкурстары
конституцияһы
кузнецов
күбәләктәр
күләмендәге
күркәм
кәсебе
көиө
лариса
меңләп
миләүшә
мишәр
миҙгелгә
мосолмандарының
мәхмүтов
мәҙрәсәһе
мөнәсәбәт
николаевна
ниәте
нулдән
оксана
оҫталарының
пенсияһы
почтаһына
проза
раббыға
рафиҡ
реитингын
республикаһына
ресурс
рәтендә
рәүешен
сатирик
скульптура
смета
схемаһы
сюжет
сөгөлдөр
табыла
табыр
талабы
таланттар
танышыу
ташландыҡ
таҡта
теләүсе
темаға
терәк
тештәре
тормошона
тотоғоҙ
тотто
туҡтатылды
туҡтатырға
тыуғанда
тәҙрә
төркиәгә
убалы
улына
умартасылары
умыртҡаһыҙҙар
урынлаштырыласаҡ
усман
утын
уҡыуҙар
уңыштарға
фараздар
фатиха
фильмдары
финляндия
форумын
фәтих
хаттар
хеҙмәттәрен
хушлашыу
цилиндр
эко
экспертиза
эсендәге
этабына
этәргес
эшләием
эшмәкәрлекте
эҙләүселәр
юлаи
юрматы
юҫыҡта
ядт
яратыусы
ярт
ярыштарында
ярҙамды
яугир
яулап
яҙын
яҡлаи
яҡшыра
яҡындарының
ғаиләләрҙең
ғаиләһенең
ғаисанан
ҡалын
ҡарашҡа
ҡасҡан
ҡиммәтерәк
ҡолап
ҡоролоҡҡа
ҡуиҙылар
ҡурҡыу
ҡуш
ҡыибатланған
ҡыҙын
үзбәкстан
үлтереү
үтәне
үҙләштерә
һабантуиҙар
һығылмалы
һығымта
һәикәленә
һәүәҫкәр
һөҙөмтәлелеген
өирәнелгән
өиөндә
өлкәләре
өмөтләнәбеҙ
өҙлөкһөҙ
##!
###
##%
##&
##(
##)
##*
##+
##,
##-
##.
##/
##:
##;
##=
##?
##@
##_
##`
##j
##q
##w
##z
##¢
##«
##¬
##®
##°
##±
##·
##»
##¿
##×
##œ
##ƒ
##ə
##α
##β
##γ
##ι
##щ
##ъ
##ю
##є
##ј
##љ
##ғ
##ұ
##һ
##י
##‐
##–
##—
##―
##’
##“
##”
##„
##†
##•
##‰
##′
##※
##−
##∙
##⠀
