[PAD]
[UNK]
[START]
[END]
!
#
$
%
&
(
)
*
+
,
-
.
/
0
1
2
3
4
5
6
7
8
9
:
;
=
?
@
_
`
a
b
c
d
e
f
g
h
i
j
k
l
m
n
o
p
q
r
s
t
u
v
w
x
y
z
«
¬
®
°
±
·
»
×
ə
˗
α
β
γ
ι
а
б
в
г
д
е
ж
з
и
к
л
м
н
о
п
р
с
т
у
ф
х
ц
ч
ш
щ
ъ
ы
ь
э
ю
я
ј
љ
ғ
җ
ҙ
ҡ
ң
ҫ
ү
ұ
һ
ә
ө
י
‐
–
—
―
’
“
”
„
†
•
‰
′
※
⁄
−
∙
⋅
─
⠀
на
по
##а
башкирии
не
из
##е
##и
что
уфе
##м
для
это
##у
за
мы
до
##ы
года
республики
уфа
году
##ов
человек
будет
как
от
башкортостана
##ся
россии
##х
рублеи
раионе
он
##ом
более
##о
этом
тысяч
его
все
##ми
башкортостане
рустэм
также
хамитов
рб
башкортостан
будут
но
10
было
20
республике
около
нас
день
уже
##я
##ные
они
раиона
сегодня
же
##ных
##т
уфы
их
время
##ныи
проидет
есть
при
был
15
##нои
##ка
во
2017
##к
##ои
лет
об
фото
12
башинформ
то
были
##ь
30
##ная
участие
##ю
##н
млн
quot
##ки
##р
еще
всего
##ного
год
11
##на
##л
##скии
среди
них
очень
19
##го
##ия
нам
##ии
18
работы
##но
можно
имени
она
иа
или
культуры
так
наук
сказал
со
автор
чтобы
деревня
детеи
##ского
##в
14
только
после
здесь
##ным
этого
##скои
вы
##0
село
16
этот
##ли
##сь
17
тысячи
ее
была
центр
##с
##ич
##ную
дворах
13
один
сеичас
под
конкурса
конкурс
25
состоится
всех
2016
быть
глава
президент
2015
два
кто
100
доктор
днем
может
##ская
чем
##ны
др
##ное
больше
человека
того
этои
##ем
эти
##ию
когда
башкирского
три
рф
окончил
если
научных
мая
свои
2010
могут
олег
##3
##ами
##ра
##ам
градусов
50
##5
раз
территории
города
свыше
##7
##ков
нужно
профессор
гг
млрд
июня
##ые
##ские
##ит
проживало
процента
яровиков
##ет
##ых
##2
работу
21
дня
место
км
22
басср
стал
апреля
##д
составляет
том
им
нет
первыи
##сти
##ие
##ть
новыи
октября
тонн
сентября
жизни
школа
23
##ку
марта
##8
##ым
##ном
см
##4
заслуженныи
людеи
находится
##ить
##ла
жителеи
##1
##ке
##6
работ
##9
является
без
стали
член
июля
начала
фестиваль
##та
##ок
40
##ят
которые
мира
проект
области
премии
##ил
##ая
должны
башкирскии
00
##сть
26
планируется
населения
##ыи
отметил
##ен
там
часов
##ев
##еи
бы
трудов
24
вас
иегова
саите
2012
температура
мне
ноября
декабря
процентов
##ными
1865
ему
относится
##ова
меня
##ции
раионах
##ских
люди
ссср
дни
орденом
совета
##ское
##ты
работать
праздник
школы
27
вам
##ах
кроме
награжден
почему
28
начало
воздуха
получили
почти
ожидается
развития
иисус
ли
союза
работа
60
ночью
2014
башкирскои
вопросы
##да
2018
раион
администрации
хабиров
##ш
где
совету
тем
много
однако
проидут
##или
свою
себя
2002
января
средняя
##ович
главы
сельскому
##ском
жители
##ния
радии
изобретении
региона
##цы
известно
проекта
##нии
2011
через
##ник
##кои
##з
##ую
no
словам
бога
жизнь
надо
площадь
количество
впервые
двух
29
70
пока
воины
новых
форум
200
работал
рамках
пять
##ое
строительство
##ина
##му
правительства
страны
##ин
2013
регионов
поэтому
организации
будем
##им
##ют
##г
##ров
##ц
дома
##ция
проходит
февраля
##ства
новые
образования
перед
каждыи
конкурсе
августа
видов
##ого
##тов
программа
##не
башкирия
годы
пресс
мероприятия
##ва
состав
москве
участников
спорта
80
нашеи
стала
эта
##ры
владимир
уроженцев
всем
сообщили
которыи
31
нем
##ды
башкир
настоящее
дети
несколько
салават
##ние
институт
мест
##п
##ите
второи
прошлом
##ность
баш
период
##ло
числе
раионов
иеговы
президента
месте
регионе
имеет
днеи
##б
##ль
между
идет
республика
тогда
##ось
лауреат
сообщает
эту
вместе
приняли
других
число
##ников
1989
##скому
вакансии
проводится
метров
1906
га
прошел
необходимо
стоимость
сев
уфимскии
сельского
фестиваля
##ности
стало
тоже
##ство
вопрос
россиискои
##цию
большои
2019
конце
жилья
наши
решение
всеи
конечно
##ники
победы
часть
четыре
течение
300
сутки
500
важно
акции
помощь
программы
работает
городе
нового
предприятии
столице
ты
##ась
июн
объем
##те
над
песни
хозяиства
##ан
бюджета
него
##скую
башкирском
своеи
бог
многие
##ск
миллионов
язык
##чные
развитие
связи
2005
акция
своих
2009
уфимском
площади
1795
мечеть
уфу
этих
##ал
даже
трех
федерации
90
го
составил
##ч
предприятия
##ж
всегда
##ово
название
труда
1959
2000
такои
прием
части
##ле
дом
россия
должен
памятник
35
начале
2020
выставка
составе
##ко
науки
ни
последние
работе
времени
город
международныи
теперь
##ским
деятель
стране
##вать
лучших
##ения
деятельность
семьи
составит
тех
1939
##али
средства
##ели
получат
селе
такие
##овых
концерт
погода
сем
хорошо
проведения
потому
##ева
салавата
##са
две
##ер
порядка
руководитель
производства
родился
выходные
статус
станет
##ком
дороги
народов
уфимского
##ение
##лы
##ель
##нов
##овои
назначен
представители
языке
граждан
150
##ст
иегове
стран
составила
конца
наша
тот
осн
молодежи
##ик
ленина
##ились
сегодняшнии
этим
##чныи
ветер
мероприятие
распространены
2008
итоги
местами
одна
строительства
##ре
можем
зачитаи
напомним
ул
данным
первая
таких
участник
мастер
население
подчеркнул
театра
уровень
целом
вот
пункт
сообщил
наших
назад
##льныи
##чных
рубля
##га
большая
оао
##нее
неделю
2006
первые
1992
победителеи
продукции
свое
##ает
молодых
библии
принял
##рии
ежегодно
момент
средств
клуб
летию
смогут
##ические
министр
путин
стоит
сын
1998
газета
городов
раза
башкирские
этому
##овые
открылся
дмитрии
республиканского
##ики
именно
##ать
москва
начал
род
сделать
##ания
внимание
музеи
недели
заседание
иисуса
республиканскии
##ф
общая
кг
компании
отечественнои
слова
молока
ранее
##цев
встретился
однои
работают
##ел
##ическои
доме
итогам
неи
получил
размер
фонд
##он
башкирская
##кии
делегация
некоторые
проблемы
ребенка
уфимскои
участники
шесть
команды
45
завод
##ни
1999
мир
ним
предприятие
##ление
1995
истории
служба
юлаев
##ма
какие
растении
рост
андреи
уровне
##ическии
премьер
урал
2007
ведь
своего
языка
ru
семеи
менее
которых
великои
уфимцев
1993
получить
армии
примут
семь
##ств
проектов
народного
принять
рсфср
##вают
домов
цены
вновь
технических
##вали
##ится
##ту
богу
июл
аграрии
благодаря
##ница
1991
активно
книги
##ического
##ца
1996
кандидат
##ила
##неи
1997
2004
одного
самых
любовь
2001
##ево
названа
окончания
павел
фельдшерско
женщин
власти
образом
другие
места
основана
открытие
главныи
имя
официальном
те
рабочих
санкт
такое
янв
2003
искусств
центре
акушерскии
форума
гектаров
одним
поддержку
стать
группа
июле
награды
синоптики
центра
##ор
затем
лишь
юлаева
##лись
400
башкирских
детских
мои
наш
продолжается
разных
32
75
александр
культур
ходе
##ают
занимались
заявки
среднем
таким
данныи
##ины
государственнои
создан
ярмарки
##баев
делать
кумертау
находятся
помощи
прошлого
сфере
являются
ближаишие
месяц
первом
детскии
должно
появится
этап
##жение
1994
встречи
меньше
##вал
##ических
##льных
##овна
заседании
провел
прошли
ярмарка
##ля
международного
##ился
##ющие
основном
реки
условия
пенсии
собрания
совр
##зы
комплекс
башкирию
начали
себе
##ется
честь
##за
##ыми
группы
журналистов
неделе
писателеи
##ении
егэ
терр
планируют
плод
книга
первое
полностью
##ному
инвестиции
информации
какои
села
служил
##сы
##циеи
должна
научн
принимаются
результаты
театр
техники
июне
просто
школ
##ическая
##щие
годах
дожди
мероприятии
работало
мар
нашего
прошла
снег
тренер
##ании
##ться
##чи
ведется
продлится
уфимск
##ются
возможно
названием
начнется
одно
приглашают
училище
сборнои
зафиксированы
ситуация
фильм
##иеи
земли
зерна
общества
пример
столицы
сумма
##ика
говорит
общеи
подписал
показатель
сергеи
квадратных
заявок
земледелием
победители
программу
сентябре
состоялся
##чно
апр
дело
городах
каждого
рождения
сразу
выс
дружбы
комиссии
программе
своим
##иться
36
встреча
км2
лучшие
направлении
закон
производство
самыи
##ьныи
возможность
выставки
работник
специалистов
##кая
башкиры
ооо
праздника
##вои
##льная
##цов
бюджет
принято
связана
здравоохранения
растет
##ну
65
миллиона
посетил
партии
пяти
##ками
##льнои
1971
известны
осадков
ср
##стве
зарплата
собои
##тор
##ших
34
выше
новая
ремонт
##ец
##жные
##рныи
##сов
##ющих
деиствует
интернет
многих
началась
очередь
получит
работников
рассказал
федерального
##ат
##льные
людям
молодые
воды
министра
##жа
##чная
##ья
данные
книгу
месяцев
юго
##ника
1980
бгу
система
##кова
##ня
гостеи
научные
совет
счет
##щих
пред
цели
##ги
##льно
347
движение
против
фонда
восемь
конференции
современное
специалисты
##ена
##жи
33
37
отмечается
сми
управления
##ировать
##нные
1985
600
текущего
##де
медицинских
накануне
сказать
##ятся
месяца
службе
школе
##ди
государственного
деревне
инженер
опыт
приходится
раионы
стартует
условиях
##ана
вопросов
депутаты
##a
1945
готовы
здание
конгресс
оно
##мов
европы
западныи
объектов
поможет
спортсмен
55
вошли
длина
задача
лучшии
правительство
срок
##ково
250
объявлен
самое
состоялось
университет
##ления
##лся
##шения
библиотека
годом
информация
самые
##вает
1990
друг
женщины
небольшои
посвящены
##ницы
##нскои
##ут
большое
красного
ряд
##ба
##во
##илась
виде
деньги
дню
мечети
такая
которая
##дить
городскои
достаточно
силу
ситуации
##жения
##ость
120
covid
деятельности
новое
реализации
станции
1941
бизнес
детям
народныи
форуме
животных
летнии
стартовал
##дов
искусства
мире
новои
поздравил
сам
сезон
технологии
##ак
##ание
##тся
##чного
##чнои
##шин
47
решения
семья
созревает
удалось
##овая
39
материалы
##вая
карима
1986
развитию
стерлитамаке
жюри
знамени
класса
национальныи
организаторы
рахимов
состоялась
большинство
респ
церемония
школьников
##ду
##стью
ан
курултая
первую
##лые
##льного
жилье
литературы
открылась
председатель
предстоит
регионах
россииских
38
завершится
остается
1976
бизнеса
говорится
заместитель
именем
уезда
цена
##нных
мае
наиболее
произошло
филиал
##кого
министерства
самым
##ьная
государственныи
засл
изменения
получают
промышленности
тела
1920
августе
имеют
отношении
скотоводством
состоит
##ием
##ме
артист
ждут
знак
медресе
нужны
пусть
результате
улице
чемпионат
##00
##евич
##лов
1966
исследования
обучение
раицентра
системы
службы
##лен
##ющии
1965
дек
лучше
проходят
сельских
среднеи
школу
##енные
1974
44
85
вами
второе
случаев
##реи
завершился
игры
комплекса
почета
представлены
роль
##то
1981
нар
отношения
первых
посвящена
##жении
##мы
##ями
1866
основная
практически
субботу
традиции
##ках
авг
белая
весь
памяти
современныи
такого
##ера
##ровать
1984
1987
выделено
команда
стороны
42
отрасли
первои
социальнои
фев
##бы
##нскии
##шим
ко
парк
чего
##аем
##ено
##же
губернии
народа
ними
отделения
старостин
указ
##ро
ветеранов
городского
занимает
земле
известна
ночь
##жных
1978
волости
зафиксировано
мед
медали
окт
родители
школах
1982
втором
главное
магазин
отдыха
сердце
согласно
соревнования
стерлитамак
урала
челябинскои
##стеи
##ха
минус
поддержки
растения
тому
фестивале
##дии
##жнои
женщина
кубка
леила
народ
особенно
сабантуи
третии
финал
##ще
##ях
ii
брат
входит
движения
основе
получила
помочь
проводятся
документ
наше
ниже
примет
слово
##вы
бесплатно
возглавил
гос
звание
здоровья
иногда
произрастает
##ея
##манов
##она
дорог
значит
никогда
первого
проходить
чемпионата
##ись
##кие
##шие
##ьно
дал
девять
ноя
пути
соответствующее
##e
##ала
##ру
##шии
1970
ведомства
да
жил
клуба
компания
номинации
откроется
##ены
##шение
##ьнои
возможности
продукция
происходит
речь
час
##вается
##шеи
##ьные
1943
аралбаева
вице
иегову
мнению
ничего
северо
чему
95
евразии
занятости
ответил
тепла
трудового
экономики
##ину
безработных
выплаты
последнии
участвуют
учитель
частности
##t
1975
вопросам
газеты
нельзя
список
фильма
цен
##ив
##ическое
##ол
вести
культура
муртаза
нач
прежде
совещании
участия
январе
##дали
##нем
##ью
1000
1917
базе
выборы
еи
развивается
телефон
1983
вошла
гости
дела
зале
зап
зарегистрировано
лесных
природы
расположена
случае
эксплуатацию
##илось
##лом
##них
1944
1977
игр
листья
проекты
рода
##ву
безопасности
вв
государства
детские
наити
путь
русскии
сад
##рение
века
детьми
ждет
лавки
начался
никто
область
одну
право
свет
спектакль
стихи
студентов
##леи
##ним
1972
43
безусловно
регион
##ге
##ек
##нуть
##ри
народнои
произв
случаи
статья
степени
хотя
##шении
1967
будущее
конференция
краснои
режим
транспорта
1956
детского
план
телефону
##дать
##нского
##тели
##ши
дальше
леса
например
отдельных
первым
саит
сами
субсидии
хим
##елеи
##рия
##рная
небольшие
потом
среднии
четырех
##баева
##вых
##еры
##чку
##шь
1955
1973
большие
вид
возрасте
всероссиискии
всероссииского
жить
качества
качестве
поступило
учителя
##ешь
##овка
##щии
1957
вечер
всю
директор
крупных
парке
первопоселенца
размере
тема
##ед
##елям
##овыи
##ству
##ти
##ша
имена
комитета
меры
новом
помощью
рынке
уровня
##ывают
##ющим
здании
молодежь
обсудили
отмечают
преимущественно
республику
урожаи
##аи
##еля
##ило
##лась
##рного
##чка
ближаишее
кино
окончила
##ллин
##нныи
1942
1969
800
кого
мельница
молодежнои
мустая
начальная
проводит
расположен
социальных
тебе
университета
учителеи
характер
часто
этапа
##су
1963
ансамбль
деревни
запланировано
каждои
международном
провести
режиссер
связано
сибае
улица
##лем
##нная
##ске
##ьное
1988
галина
информацию
образование
погоды
результат
студенты
учреждении
цель
##нт
##ости
##чную
##ьным
56
жителям
заявил
казани
неделя
основано
примерно
принимает
создать
умеренныи
успешно
хлебозапасныи
языку
##нно
##се
700
башкирское
михаил
октябре
отец
семье
традиционно
##вания
##гу
##ких
##льную
##овым
1964
46
выборах
маи
ольга
травы
установлена
уфимцы
##нию
1979
вост
масса
предпринимателеи
различают
смерти
соглашение
третье
уфимских
цветки
##иков
##инои
64
мчс
нее
регионального
россииского
своими
союз
уфимец
шоу
##жу
##ис
голосования
госсобрания
деиствовать
детсад
живет
марте
мороза
права
тебя
##ваться
##вит
##тои
##ческии
1960
защиты
проблема
региональныи
сравнению
##вые
##ельные
##енных
##ине
##рные
всему
выступил
дух
концу
начинается
некоторых
поэта
следующеи
смотрите
спортсменов
тыс
##аны
##ир
##ствовать
##ул
общии
установлен
##s
##вание
##жныи
1946
главои
миллиардов
могли
опубликован
проблем
реализуется
реке
следует
следующии
считает
театре
уфимские
##чены
##чик
##ье
1961
воскресенье
другим
политики
реже
реитинг
рядом
семи
сложности
соответствующии
станут
хочу
##ром
##ционные
##щим
##ься
130
1962
52
вся
названы
сен
сотрудничество
стебли
языках
##ике
##ица
##щен
агентство
гала
гран
дождь
должность
живут
насчитывается
память
тело
##дия
##нюю
##овскии
1919
дворец
новую
определены
подробности
прошло
режиме
уч
##него
##ового
##рных
##ус
##щеи
41
адресу
депутатов
другои
ниж
пор
порядок
соответственно
##ваются
##ельныи
##ьного
1937
1968
48
администрация
вс
высота
вышел
герои
закона
линии
обычно
октябрьскии
онлаин
открытия
подарок
расположено
рус
рустэма
самая
сочи
турции
шести
школьники
##альныи
##вшие
##зации
##лении
##па
##ста
##уллин
категории
квартир
летие
минимум
музее
оренб
подготовка
позднее
правительстве
праздники
середине
сотрудничества
уфимская
##дно
##от
##рова
##ционныи
бакалеиные
борьбе
верх
деревьев
зерновых
иссл
миллиарда
новым
приз
сына
##бу
##ким
брикс
звезды
нашу
объект
презентация
ребенок
христа
##i
##лю
##нить
##чным
1949
готовится
одном
отметили
представлена
проблемам
проведение
пятницу
река
услуги
хамитова
хорошии
##вались
##няя
любви
малого
назвали
началось
показатели
появились
рабочеи
сбор
своем
формы
91
агентству
дорогах
журнал
известен
института
класс
национального
объекта
оренбургскои
открыт
служить
участниками
##ционного
1918
газ
деле
думаю
качество
кв
общество
сезона
спасибо
такую
услуг
##вка
##дают
##ур
1958
выросла
история
итоге
летом
наиб
нужна
планирует
площадеи
портале
пр
принимают
управление
##дан
##жен
##ман
##тдинов
##чки
##шем
1953
53
водяная
вошел
даваите
подготовки
растение
эльмира
##лены
##нет
##ческих
##ьных
братья
главная
желающие
меда
николаи
плата
победу
поддержке
сколько
шос
##тныи
главным
доля
медаль
мм
нефти
пфо
экон
##жать
##лять
##пов
##щать
##э
##ять
деиствительно
зал
имеется
инвалидов
квартиры
общественнои
палаты
представляет
создана
сотрудники
физическои
##ждение
##нения
##сты
##ует
##шев
##шего
110
58
галия
местах
национальнои
развивать
раньше
чаще
##бои
##вить
##шек
1940
выставке
кандидатов
московскии
особое
постоянно
прежнему
проводить
роднои
совещание
сообщается
танца
хозяиство
художник
художников
##жного
##шению
72
врач
дворе
декабре
имеются
которое
победитель
распоряжение
руководством
сабирова
сроки
сумму
туризма
##лена
##нут
веснои
контроль
крупные
медицине
муниципальных
отделение
ребята
роста
узнать
##скими
##телеи
##том
##че
##ческого
воен
выросли
делегации
лучшим
открывается
сельскохозяиственных
семян
ситуацию
совсем
татары
участвовали
##елями
##овать
##щи
##ющая
батыр
вторая
деят
дочь
касается
лидеров
любои
мужчина
основные
официально
подведены
предложил
продолжительность
различных
творчества
труд
##вого
##дин
##лу
##ско
##ством
##чатые
1954
академии
гриппа
завода
заводе
используется
надеюсь
округа
отца
плюс
руководителя
##лет
##рь
##стов
##чен
350
бензин
виды
гектара
десять
константин
петербург
пожаров
столбики
##ицы
##щено
владимира
вузов
единая
завоевал
мельницы
молодежныи
петр
помогает
производству
урожаиность
учеников
хорошие
юрии
##вался
##жал
##ительные
##чено
бакалеиная
деиствуют
землях
интерес
которои
летняя
мог
отр
появился
рассмотрим
родителеи
создание
сохранится
учащихся
церковь
##ально
##ивно
##истов
##ически
63
выпускников
дает
педагогическии
помимо
премия
провели
проявлять
самого
самои
сша
съезд
##зин
##зов
##ику
##льное
##рнои
##цами
##щем
банк
выявлено
гибдд
исполнителеи
ист
мужчин
объекты
организация
пришел
собственных
становится
учреждения
четверг
юж
##елем
##ист
##лению
##лии
##нка
##нь
##ню
##рово
##ска
##шки
##щена
аэропорт
вклад
деп
ирек
маленькии
мало
направлено
пенсионеров
проведет
пунктов
термометров
ушел
##еть
##ория
##теи
##тич
##торы
##ход
140
1948
библия
вручил
идут
которого
министерство
награждены
несмотря
премьера
спортсмены
сцене
##сия
##шат
##ывать
1952
баимакском
башкирами
вышла
немного
органов
покажут
предполагается
прогнозируют
рук
соревновании
состоянии
стерлитамакском
тепло
члены
##анию
##дар
##их
##ог
51
бахшиева
белорецком
больных
вида
врачеи
здания
используются
основнои
процесс
самом
среду
топ
##жены
##инского
##ити
##нного
##тии
##чать
##чное
веру
встречается
депутат
наблюдается
состоятся
социально
часа
##ано
##жная
##нова
##рскии
57
большую
друга
железнодорожнои
моя
назвал
научная
оборудование
повышение
погибших
помогать
посетили
продукты
собрании
стерлитамакского
суд
##вым
##дает
##до
##евского
##ическую
##ляет
##очныи
##тыи
##фа
1930
1938
1950
93
апреле
ветра
внимания
встрече
зрителеи
издание
лавка
направления
нашли
ныне
обл
обучения
парламента
погибли
посвящен
проведут
##анов
##ельная
##жает
##лая
##нным
##ционных
##щего
1951
59
балета
будущем
голосование
градуса
задачи
ильдар
каждом
мать
медведев
обязательно
ожидаются
построено
построят
появятся
продолжает
продукцию
рассказали
россиян
событие
участков
учтено
##зм
##шать
артисты
безработицы
документов
журналисты
завоевали
курултаи
лечение
мужчины
муртазина
научно
ноги
оборудования
питания
пол
праздником
решить
россиискии
турнир
участвовал
численность
членов
языков
##евскии
##ющего
49
99
власть
москвы
ноябре
организован
парка
перспективы
русские
ст
экономического
##ада
##идные
##пы
##рения
##цам
##ческие
##шина
iii
выступления
жкх
завершается
людьми
международных
мисс
поручил
произведения
смогли
созыва
спортивныи
сть
учился
##бая
##вшии
##дная
##иля
##кое
##сить
##ствие
##ствия
##тного
##ча
##шево
54
67
библию
всероссиискои
голос
зависит
новогодние
половине
пост
превышает
санатории
создано
социальные
условии
участвовать
##альные
##льным
аэропорта
документы
единиц
комбинат
метра
набиева
награждена
награждения
организована
поддержка
порывы
пособия
свеклы
слезин
сожалению
##ельно
##ельным
##ино
##ическом
##ннои
##ственные
##чил
##щал
160
62
археологическии
воспитанник
вырос
вышли
известныи
организатор
остались
побывал
подарки
получать
почвы
принимать
продуктов
ребят
территория
увидеть
феврале
формате
юные
##ган
##нять
##тельныи
##чить
##щения
##ям
использовать
относятся
построить
поэт
пришли
славы
страна
текущем
##вое
##ению
##ируется
##нты
##онов
##оров
69
артур
визит
возраст
дл
единои
мвд
национальных
начались
одновременно
предпринимательства
русскои
спорт
татарстана
утром
числа
##еев
##жил
##ивные
белые
выходит
глаза
готовятся
завоевала
землю
лесах
музея
прав
представителеи
прогноз
прогнозируется
пчеловодством
следующем
снова
социального
столица
требуется
тур
учалинском
центральнои
##ирует
##ируют
##ительныи
##метов
##мои
##рои
##това
##чу
##щик
1900
83
92
агентства
водителеи
возраста
вперед
кантона
китап
классы
книг
летия
нами
общее
прямостоячие
сердца
советскои
статье
хребет
чуть
##l
##ве
##вших
##си
##ски
##тово
68
98
абзелиловском
восточныи
направление
органы
очереди
памятника
причем
радость
разные
распространен
торжественное
третьем
участки
этапе
##вала
##ита
##рского
##руют
##тные
больницы
доска
кармаскалинском
классов
красную
личность
мастеров
матч
минут
написал
нему
открыли
открыто
слава
участок
ученые
фаизов
хотел
широко
южного
##n
##нул
##овскому
##ток
1925
82
96
берегу
говорить
гранты
дел
знаем
значительно
какое
котором
которую
линия
марат
мелеузовском
отмечены
правовои
принц
создания
стартовала
##d
##ар
www
главного
значение
идти
каникулы
комиссия
местных
объеме
остальные
показали
пределах
раиль
службу
соревнованиях
увеличилось
хватает
##us
##дуллин
##жеи
##жению
##ирования
##тки
##чие
##ше
84
автомобилеи
гульфия
калинина
края
лучшего
нефтяник
понедельник
потенциал
представлен
преподаватель
сил
силы
скота
торговли
##дал
##очная
##сные
1896
арт
вход
выставок
девушек
избирателеи
коллективов
ознакомиться
пассажиров
пациентов
приобрести
сделал
сильно
сотрудничестве
стерлитамака
сферы
толкачев
хотим
##ia
##дом
##ельного
##иты
##ическим
##лог
##овы
##ологии
##рам
##уют
##чена
##ческои
##щение
66
97
дальнеишем
иметь
ксения
обязанности
отличник
реконструкции
руб
русском
сср
старт
субъектов
уверен
##альных
##аться
##жден
##жено
##рк
##шая
##шее
87
азии
башгу
братьев
встречаются
гафури
давно
заработная
зауралье
золотои
красоты
кубок
матери
материалов
начнут
песня
сотрудников
языки
##ального
##бные
##бных
##лено
##льном
##ствии
##тые
##ум
##чат
##шает
##ываются
##як
белебеевского
доходы
дтп
кампания
курсы
м3
муж
нашем
педагог
победителем
подобные
работала
республиканских
сильного
снижение
состояние
улицы
хочет
##дит
##иль
##ип
##нение
##нес
##рскои
##ствует
##ционная
##чь
##щении
76
агидель
бассеина
большим
бст
включает
готов
завершить
завтра
заседания
коронавируса
могу
ознакомился
петербурге
писателя
предложения
скончался
созданы
традиц
федеральныи
##x
##давать
##езд
##енно
##енныи
##мет
##очные
##сит
##щаться
1947
алим
быстро
водяные
голова
городских
государственных
губерн
девушки
заведующии
звания
коллектив
команд
корпус
молоко
находился
озимых
отмечает
председателем
проходил
разл
сети
строить
федеральном
хаибуллинском
##o
##вести
##исты
##оры
##ционнои
##шева
##щает
2021
73
германии
говорю
ежедневно
оба
октябрьском
осенью
поздравляю
поселились
пострадавших
прочитаите
семинар
события
туимазинском
участию
##изации
##мир
##нием
##од
##торов
##ьи
##ьную
94
iv
видео
восьми
государственные
коронавирусом
насчитывалось
нескольких
нормы
площадки
показать
политическая
посвященныи
правильно
приехали
проблему
реконструкция
собрали
сообщила
##аю
##динов
##ела
##еннои
##жно
##нное
##ора
##рт
##тау
##тнои
##ческая
##щая
акулова
воздух
выступает
дворце
историю
либо
мемориальная
новому
образ
плоды
предприятиях
сахарнои
составляют
спросил
стебель
умер
черте
##бе
##дим
##енными
##ескии
##ждении
##рно
##тель
##чении
##ща
ассоциации
вечером
запланирован
казань
местные
неск
основан
очереднои
подряд
поселения
представили
придет
собрание
цик
##иле
##ностью
##рования
##ывает
77
88
башкортостану
введено
выборов
денег
детскои
заниматься
знаю
золото
зоне
изделии
кампании
которым
нашим
общего
появилась
прирост
пришлось
проводиться
республиканскои
руки
снега
созывов
текст
финансирования
хозяистве
христиане
##жное
##итесь
##линского
##мухаметов
##нская
##рович
1935
61
71
74
вторник
заболевших
населенных
нац
оказались
осуществляется
печати
приглашает
приступили
работники
счету
ученики
финансирование
хотят
янаульском
##даются
##дныи
##жит
##жном
##зе
##ироваться
##линскии
##мах
##нении
##рном
##рять
1936
алексеи
ваш
ведутся
всемирныи
встречу
говорят
далее
домои
каждым
названо
писатель
понимаем
превысил
преддверии
причины
равен
своему
скоро
средних
сторону
странах
существенно
тв
тонны
туристов
утвержден
федеральных
экземпляров
##альная
##аются
##вныи
##гии
##лых
##чит
##чными
##юсь
##ян
##ящие
альфия
вечера
владел
вручили
геол
долларов
заняла
курс
лилия
мн
назв
начнет
оперы
осадки
осмотрел
позволит
работаем
радио
реитинге
рек
сборная
сможет
сообщают
существует
фиксировалась
химик
чемпион
южныи
##альнои
##ара
##баи
##евои
##ждает
##иев
##ота
##рах
##шли
##щается
белои
вера
гл
дворов
исследовании
каждому
механик
перечень
положение
представят
президентом
проверки
проити
развитии
ремонта
снизилась
участках
фронтах
хранятся
##ации
##бного
##валось
##дои
##ированы
##ровал
##ря
##тр
##хи
##чается
##шка
170
1773
ведут
видно
врачи
грозы
занятия
казанскои
каким
лиц
междунар
местного
мировои
многое
мусора
опубликованы
отметить
праздничные
праздничныи
предположительно
председателя
причина
проживает
путина
работои
ресурсы
сборник
сел
соцветие
эксперты
##дных
##емых
##ета
##жали
##жают
##зии
##ителеи
##лось
##никами
##нки
##овое
##сная
##тным
##хоз
##шить
##щание
акад
весть
вручены
всероссииском
главе
зрители
коллективы
микрораионе
образован
обращении
победа
позже
получения
построен
правления
профессиональныи
растут
региональных
сделали
сказала
сюда
чемпионате
##евна
##ею
##ждается
##ировали
##овал
##рин
##рование
##щ
##яли
000
78
больнице
ваши
вокруг
график
деятелеи
желаю
занимается
занимаются
кугарчинском
медалеи
организованы
отдела
открыты
открытых
приток
точки
уфимское
физико
яица
##бныи
##вку
##еская
##ировал
##пп
##сию
##тами
##телями
##тики
##чают
##чили
##щики
##щиков
адрес
башнефть
буду
всемирного
выступили
горныи
государственном
зарплаты
издания
используют
корпуса
молодежного
молодои
молодым
народные
общественно
организовано
полныи
придется
реализацию
республиканском
салавате
успехов
ученых
форме
хотелось
##y
##аде
##ается
##алось
##лял
##никам
##рея
##сныи
##тных
##чек
##чим
##щены
##ющее
##яется
86
автобусов
ведет
возможны
всеми
выиграл
выступят
говорил
грантов
группе
девяти
евгении
избран
изменится
индекс
инфекции
мама
наградили
номер
поддержал
позиции
празднике
призы
решать
телеканал
точно
учебных
цифра
##гулов
##ельных
##емся
##живают
##кс
##ктор
##лок
##мова
##пал
##полнили
##шал
аи
актер
башкирскому
ведомстве
ветераны
голов
господа
житель
жителями
заболевания
игорь
многодетных
номинациях
отделении
отцом
площадках
прибыл
рабочие
расходы
революции
смерть
творческих
тираж
участием
цветы
ярмарке
##баш
##вод
##вшего
##ждения
##имов
##шен
двое
заместителем
источник
лето
мяса
начать
немало
ответ
отметила
партия
признан
проведено
проекте
результатам
сеть
сибая
системе
служение
совместно
среды
увеличится
учиться
##гов
##енная
##ственная
##сят
##чем
79
аэропорту
баимакского
баирам
белорецк
взял
выпуск
друзья
иглинском
концерта
лит
мальчик
мост
орган
памятником
парламентарии
погиб
предупреждает
программ
разве
служении
турнира
учреждение
форма
чишминском
##вят
##евка
##ент
##зных
##има
##нал
##нется
##ура
##чество
##чиков
##ьцы
академию
акцию
бирского
богом
введен
духовно
занял
зафиксирована
многолетние
недавно
никаких
ногаискои
открыта
открыть
переведены
порои
родилось
собрались
собрано
статистики
установлены
церемонии
юных
##ались
##из
##имся
##ленные
##лина
##ода
##пления
##сных
##чет
##ющеи
деиствия
дорога
знании
идея
капитал
кому
лесистость
м2
музыки
обсудят
обществ
объемы
оценил
поколения
провинции
птицы
рос
сада
систему
сокращается
суда
татар
температуры
торговых
участникам
центров
##аева
##ван
##днои
##ерно
##зу
##иса
##кции
##мович
##оды
##очных
##рем
##ску
##стр
##чном
##ҡ
1934
азат
бурзянском
временем
выступит
диктант
директора
каждая
какую
международнои
насколько
нефтекамске
образовании
открытыи
официальныи
поинтересовался
поч
приятно
продолжать
промышленность
профессии
соответствии
спортивные
спортивных
требует
учреждена
экономическии
юнеско
##аев
##дил
##лова
##логии
##несли
##ником
##ниц
##ново
##овского
##оло
##рел
##ственное
##стныи
##стями
##чеи
180
буздякском
визитом
воине
десяти
зрения
конкурсы
короткие
матем
наград
надои
настоящии
открыл
постепенно
приносит
работали
реализация
ресурсов
ринат
связь
сих
содержание
старше
таком
темно
товаров
угату
урожая
хорошая
четвертыи
эфире
##p
##брать
##вил
##ее
##ес
##жается
##ивных
##иста
##кин
##ляются
##овскои
##строи
##тельные
акбузат
видим
вода
выбор
выросло
данных
дата
днях
другом
желание
имел
коробочка
лауреатов
летнеи
любит
месторождения
нужен
остаются
планы
площадке
почетныи
примеру
проводят
проекту
регионы
реисы
решили
садов
самка
сибаи
слабыи
советов
сохранить
тысячу
филармонии
худаибердина
чувства
##ад
##вом
##икои
##иров
##ительно
##иями
##ляют
##нимать
##стях
##ук
##чивать
##ьского
буквально
включены
вскоре
высокии
гастроли
героев
гимназии
главнои
делам
драмы
жилищного
зимои
контракт
крови
крупнеиших
крылья
летнего
минтруд
мусульман
находились
однажды
осталось
относиться
первыми
подробная
поездки
пожара
половины
понять
призер
производств
рынка
семена
семьям
сорт
трава
трудно
хорошее
цифры
челябинске
экологии
##би
##булатов
##валась
##ведение
##дет
##дие
##ента
##ехать
##жет
##жным
##итет
##каз
##лла
##рки
##ровано
##рого
##сил
##сили
##ственныи
##тельных
##ывается
1932
биологических
входят
главных
журнала
крупныи
литр
лично
награду
направлены
оперативном
определили
организаторов
открывает
площадка
подписано
показал
поселении
посмотреть
представитель
преим
произошел
серии
среднего
театральных
торгово
увидел
увидели
фотографии
центром
часы
##ался
##дные
##есь
##жить
##мен
##нную
##овали
##оводства
##рован
##рует
##ственных
450
архитектуры
бесплатные
голосов
жилых
запланированы
идеи
коронавируснои
маршрут
мелкие
министерстве
находилось
общественного
объединения
посетителеи
последнее
прибыли
проводились
протяжении
реитинга
сельскохозяиственные
составили
столицу
телеканала
торжества
худ
центнера
частных
##дания
##ельнои
##жат
##жин
##иа
##инскии
##нович
##рос
##ственно
##шими
##ьскии
##ял
бгпу
готова
гуп
даннои
девочка
дема
денежные
дорожного
запланирована
здоровье
множество
муниципалитетов
обнаружены
ожидают
оказался
правило
присвоено
сарбаев
справок
стерлитамакскии
тему
удостоен
университете
яз
##альное
##вление
##дь
##живать
##жим
##ирование
##ители
##лях
##ницу
##нском
##очнои
##пись
##рат
##тию
##тка
##уга
##хов
##ыш
89
альшеевском
вашеи
девушка
добавил
довольно
желающих
изделия
кураи
машин
означает
оренбург
получило
потеплеет
предупреждение
проведен
продолжится
промышленного
расположены
рустам
секунду
темы
удостоены
укр
хк
церкви
шаг
шаранском
##аль
##вки
##водства
##дили
##еру
##изма
##ильных
##искии
##кт
##лик
##нят
##олог
##ратить
##ственным
##тан
##того
##ченко
##шали
##шены
##щее
1922
1929
автомобиль
аират
валиди
гафурииском
делает
длинные
дополнительные
достигает
знает
илишевском
килограмм
малыи
марафон
машины
местом
обитает
обстоятельства
останется
питаются
пожар
поколение
пользу
предложение
приема
прогреется
рабочии
развиваться
разработки
съезда
типа
тяжело
увеличить
улиц
человеком
##v
##вич
##нными
##писаны
##работка
##ран
##стные
##шается
##шенные
впереди
высоко
граждане
должности
дюртюлинском
журналист
километров
китаи
китая
максим
местности
обещают
операции
павла
платы
подготовке
подорожали
премию
приглашаются
продолжают
проживал
проживают
руководство
сама
сильныи
советы
спектакля
статьи
строительству
христос
центры
яиц
##ама
##вскии
##днеи
##ег
##ждают
##жки
##лин
##ностеи
##нское
##овская
##шит
##яются
ансамбля
аургазинском
бгми
взять
детская
дороге
души
какая
конкурсов
кр
мое
надеемся
ожидает
озеро
особо
отметят
питается
получение
призвал
скорее
скорои
совершенно
создании
строительных
танец
химии
холле
хотели
##еева
##ельное
##ковского
##няли
##ос
##пан
##рации
##тив
##чал
##чии
##шую
##эс
##яют
божье
варианты
виктор
дипломы
европе
знания
консультации
морозы
направлениям
народных
невозможно
орви
организовать
отношение
песен
плана
поселок
поступать
поэзии
правление
проезд
птиц
ран
руслан
советского
тарифы
творчество
телефоны
темпы
туда
туимазы
тут
умпо
установили
юбилеиныи
юсупов
ярмарку
##бом
##вающих
##еских
##инг
##ичнои
##кую
##ляем
##нах
##нулись
##образных
##оне
##очного
##ху
##чивается
##щество
##ывалась
абсолютная
бассеин
бирском
второго
выходнои
госдумы
государство
ждать
жена
ими
комитет
корреспондент
лучшее
международная
мирас
мнои
обсуждались
основания
поддерживать
правила
решил
родилась
учащиеся
финале
##анные
##анных
##дка
##истые
##рами
##тическая
##яет
125
81
азамат
белебеевском
белорецке
большого
ваша
ведущих
вконтакте
выпускники
высокои
давлеканово
датируется
иеговои
инвесторов
казахстана
количества
культуре
медалью
миякинском
награждение
обладает
объявил
открытии
охраны
петра
планах
пособии
предприниматели
предусмотрено
прожиточныи
рассказала
россию
россияне
рынок
считаю
##30
##on
##ало
##аты
##аф
##вные
##вшая
##езде
##изм
##иона
##нял
##овую
##одов
##оны
##рит
##рок
##сного
##ствуют
##ствующих
##тно
##тора
##ходит
##чего
##щению
07
105
база
видел
говоря
горячая
далеко
даст
друзеи
завершили
избирательных
иисусу
кафедрои
куда
моеи
награда
налогов
образованием
отрасль
полном
портал
продукт
различные
рекорд
сестры
содержат
содержит
станц
трое
юбилеи
##ав
##алась
##гулова
##зма
##иях
##кает
##ллина
##рм
##сии
##ственного
##теля
##циям
280
авраам
административныи
акмуллы
бгау
бирск
будьте
годов
гололедица
дать
жен
зафиксирован
знал
карты
колледж
коллектива
лица
любовью
назван
началу
нефтекамск
облачность
объема
операция
основатель
первенство
площадью
повышения
поле
посетит
редактор
родине
сады
серьезно
собрал
составлял
столько
театров
умеренном
урале
участии
##r
##ваю
##вшиеся
##выми
##дут
##ете
##кому
##леннои
##лым
##овную
##ою
##руется
##ряет
##сение
##сова
##сом
##тации
##тике
##туры
##ьном
##ьскои
##эн
##ящии
##ә
аварии
александрович
вообще
вуза
горных
гражданскои
знать
зоны
играх
красныи
крыма
культурныи
лесного
леснои
миру
николаевич
округ
основных
отдых
палата
пандемии
педагогов
пещера
половина
понятно
предлагают
проведена
ради
россииские
соискание
соц
спасатели
спортивная
уральскии
училища
хвост
хозяиствах
##ваем
##вел
##вляет
##дача
##езда
##жена
##иных
##иф
##кам
##нит
##нями
##около
##опарк
##работать
##рным
##туллин
##ходят
##шенных
##ьник
112
1500
автора
божьего
борис
важное
валеев
весна
возле
выберут
высокую
выставку
гор
горсовета
грех
давид
дорогие
единыи
заработнои
земному
изучать
ишимбаиском
ключи
лауреатом
любить
мощность
мэрии
национальном
обращения
посвященная
почта
празднования
представляют
проведении
распространена
реис
республиканская
сестра
тура
утверждена
уфимка
учете
учреждениях
франции
чекмагушевском
этно
##es
##анное
##ваите
##дию
##ковскии
##нил
##няется
##няться
##ования
##пова
##рд
##сан
##со
##тие
##тия
##тович
##шло
##шные
артистов
бижбулякском
возглавлял
воспитанников
давлекановском
домах
достиг
достижения
заводы
зианчуринском
институте
исполнение
итак
коллеги
материнская
международным
мишкинском
можете
необходимость
оборот
огромное
поддержать
последних
представил
представлено
проведены
продажу
прямои
рельеф
решении
роли
салаватском
сезоне
случая
создается
социальная
спустя
творческие
участвует
фиксировалось
фк
хозяиств
шару
яровои
##g
##влены
##даем
##дами
##ельскии
##жаться
##жащих
##жем
##зация
##ивать
##ипов
##иц
##нцев
##пала
##пки
##снои
##тер
##тические
##тное
##товых
##це
##цу
##шили
##яные
06
900
билеты
благоустроиство
входили
высокие
даты
дк
заболеваемости
зилаирском
иванович
издается
издана
истину
ишимбаи
кадров
концерте
кызыл
линию
мнение
многоквартирных
нуля
общественныи
опять
ответственность
отходов
плотность
победителями
правительством
профсоюзов
пятыи
самолет
сдать
сельскои
серебро
серебряныи
сирот
слов
снг
соберутся
соцсетях
считают
тимур
тюркских
угнту
целью
читателеи
штаб
##35
##вании
##ви
##влено
##вшеи
##дание
##дняя
##едение
##енное
##ивнои
##кты
##ливо
##лово
##мещение
##нуться
##ога
##пление
##рет
##рск
##стных
##тическии
##уса
##чества
##чник
##шнеи
##янка
vi
баллов
бгму
берет
ва
взрослые
выделяют
гибели
дали
другу
завершена
известия
интересно
италии
квартале
красные
кратковременные
лошадеи
матфея
межрегиональныи
министром
минсельхоз
москву
назвать
общественных
оказалась
округе
педагогических
первенства
плане
планируем
полях
помнить
постановление
предложили
президиума
приняла
производителеи
русского
святои
сертификаты
служит
старыи
творческии
техн
трудовои
цветет
##70
##um
##выи
##льскии
##новения
##нялся
##ратов
##стана
##щими
272
башкирскую
борьбы
валеева
валерии
вузы
генеральныи
двереи
доходов
желтые
жилищные
заявление
золотая
известные
исполнилось
исторических
каких
каком
капитала
композиторов
легкои
лучшую
минералогич
молодежных
начиная
опытом
питание
победителя
полиции
похолодает
появиться
предварительным
представит
проведению
производит
производстве
пром
проходили
редко
родных
рождаемости
середины
смену
совершил
спортсменка
строительстве
твои
теплая
уборка
увеличился
уни
учалинского
федерация
формирование
цветов
##b
##m
##аите
##бов
##дается
##енко
##кими
##ляли
##мина
##нице
##ому
##рист
##ровали
##рованы
##рских
##стан
##тику
##шных
1923
абзелиловского
библиотеки
болезни
будущего
бураевском
вел
взгляд
выбрали
выход
выходным
горожан
долго
долю
жильем
задач
зауралья
издании
изучение
кажется
кормовые
населен
начнутся
ответы
открылось
оценку
порядке
поясах
принадлежит
производится
происшествия
рабочая
радик
регистрации
регулярно
сначала
современные
статистика
странице
традиционныи
учебного
форму
христиан
цене
эльвира
##ака
##ау
##аш
##баево
##бые
##вах
##вная
##вского
##ением
##енным
##ивное
##изация
##инная
##ительнои
##ковых
##летнии
##лыи
##лык
##нта
##нулся
##рка
##ровка
##сно
##театр
##чали
##ченных
##шают
220
260
африке
бабич
белорецкии
важныи
ввести
ветеранам
включен
вместо
выздоровели
выяснилось
дир
зарубежья
изготовлением
качкаев
кормов
крым
лиги
моста
наука
науч
начальник
необходимые
обратились
отличается
певец
письма
полнои
породы
пошли
приглашены
приняты
промышленных
просвещения
раиону
расписание
результатов
родителям
руководителеи
секретарь
семью
сказано
съемки
ферм
чтении
экономике
##вна
##внои
##дано
##дите
##еров
##еском
##ируются
##итель
##кат
##лга
##нему
##ните
##нок
##оду
##пич
##рб
##стно
##тная
##тник
##уем
##ьными
102
1928
аигуль
александра
аналогичныи
бороться
брата
вере
вернулся
ветвистые
возможен
вызывает
выразил
высокая
говорили
грант
дерево
дороже
законопроект
звезда
зеленые
изобретения
культуру
курганы
лета
максимальная
мере
могильник
обитают
олимпиады
оставаться
официальнои
пам
плохо
пожилых
полит
порода
предложении
приводит
проповедовать
рамиль
регистрация
рубежом
связаны
сильные
сможем
состоялись
списке
стороне
строители
счастье
тои
требования
фабрика
фильмов
функционирует
ходом
царства
шульган
южнои
##ательно
##бирать
##бра
##вили
##вт
##даны
##динова
##дуллович
##жник
##ивная
##иные
##ища
##ковые
##лки
##манова
##ничнои
##оводство
##писи
##ремя
##рить
##сен
##театре
##тесь
##уются
##шел
##шил
##ьцев
1933
анна
банка
больницу
будете
весны
вполне
всероссииская
вторую
выступление
глав
дипломами
единства
заведение
заки
зала
зонах
минувшие
мэр
нации
октябрьского
отечества
подписан
пола
помещении
помогут
пострадали
преподавателеи
родного
соответствующие
ссылкои
суммы
татарстан
техника
утра
учетом
федеральнои
##бинат
##бно
##вов
##вол
##вшись
##вшихся
##гом
##дят
##дях
##ельских
##ехали
##зован
##лением
##ленно
##ницеи
##ографии
##орт
##рим
##ствовал
##уст
##уя
##ыр
##яться
##ящим
архангельском
благоварском
больших
ваших
вич
воина
высшего
двери
деиствовал
директором
екатеринбурге
зависимости
заметно
знаете
интернете
инфраструктуры
калтасинском
концерты
краснокамском
лидером
массовои
медики
международные
месторождении
научныи
недостаточно
обратился
обсудим
окраска
организатором
осуществляет
парков
подали
поля
поставил
похолодание
представить
развиты
разработан
реализовано
родном
руководителем
самую
свободныи
сохраняется
спорту
статеи
стипендии
татышлинском
таш
теплыи
удобрении
учит
частью
человеку
ялалов
##аров
##бил
##бить
##вет
##гами
##дк
##днего
##евым
##ескои
##ехал
##жится
##жников
##ива
##ивного
##идет
##имы
##ирован
##ированных
##искои
##ичные
##лан
##летов
##лон
##очно
##писки
##порта
##рон
##сел
##тельнои
##чика
##чке
##щества
115
1921
240
авторов
воде
водои
гаскарова
городище
делом
заболеваемость
зарплату
идею
издательство
изучения
историко
лечения
мастера
моего
молодежная
обнаружен
ордена
особыи
осталась
остался
памятные
переменная
письмо
правом
приедут
призами
произошли
простые
путем
рассчитан
реках
сельское
словами
сравнения
степи
субботник
тат
уаи
шир
##11
##k
##аду
##ация
##гат
##еево
##ерная
##ивых
##лия
##ложил
##ляется
##нами
##нулась
##овался
##тях
##ческое
##шно
##ющихся
##ящих
1931
абдразаков
автомобиля
башкирским
борьбу
бывает
вещества
влияние
всемирнои
выступал
дан
достигло
древесины
зарипов
звезд
земля
иремель
концертом
круглыи
крыму
лидеры
методы
мечетлинском
наидены
наконец
нарушении
нур
овец
оказалось
оплаты
отмечен
отмечено
очков
пар
персональные
площадок
подготовку
подобных
политика
посевнои
природных
птица
рад
рады
расти
репрессирован
светлана
свидетели
серьезные
снегом
событии
социальныи
страну
транспорт
формат
хабирова
ход
художественнои
цвета
экономист
##91
##вке
##гам
##дина
##ере
##ески
##иологии
##кино
##ложение
##нули
##ован
##пали
##писать
##править
##рали
##рая
##рина
##рма
##родные
##слав
##совета
##явить
103
amp
авторы
благоустроиству
брак
выити
газа
гораздо
групп
губернатор
декоративные
желающии
знают
изменении
интервью
курбан
куюргазинском
лагеря
мальчика
мария
наличие
недвижимости
нуждается
олимпииских
организует
остальных
откроют
открываются
отмечена
оценили
петербурга
поблагодарил
подготовлено
поидет
полк
принят
приобретение
произведено
проф
псалом
рассчитана
родные
рубеж
светло
сделано
секции
созданию
студии
тасср
тесно
трудовую
уфои
филологических
электронныи
юридических
##98
##ae
##ант
##влен
##влении
##ельности
##ельную
##ерного
##еские
##ест
##жина
##ион
##кроют
##логи
##нефть
##носят
##нск
##нур
##нялись
##овских
##ола
##оте
##рская
##тая
##тельного
##тном
##ченные
##ьская
190
com
активное
благодарность
большинстве
валовои
волонтеры
выходных
городском
гранта
деиствии
деловых
другими
дружба
елена
жанр
завершилась
зерновые
издательства
изучению
инициативе
клюв
количеству
кон
краи
крестьянскои
курая
кухни
марсель
медалями
минимальныи
минимума
модернизации
молодая
музыка
мысли
мясо
намерены
начинает
неплохо
нибудь
обеспечения
общения
общественная
периода
племя
подать
подражать
позволяет
попал
посетить
построена
поступили
протяженность
профессионального
процент
работающих
руководители
сафин
следующие
служителеи
соглашения
содержится
сотрудник
спортивного
стоимости
трудности
туимазах
уфимцам
федеральные
хочется
чемпионом
чтения
экологическии
экспозиции
этнографии
##бит
##дя
##елю
##ема
##ерами
##жили
##жье
##зи
##ильные
##иских
##ленныи
##лета
##леты
##нам
##овом
##ране
##ряд
##стыи
##суждены
##тика
##тина
##хат
##хоза
##чению
##читать
##шла
##ялись
104
135
230
актриса
асср
башгидромета
белебеи
божии
бронзу
водитель
воиск
голову
гузель
девочки
духа
жилищных
заведения
занимал
иначе
инфицированных
каждое
лесными
материал
музыкальныи
надежда
насекомыми
настоящему
новогодних
обеспечить
образовательных
ограничение
ограничения
опубликовано
организуют
пенсию
показателеи
половои
посвященные
представление
прессы
применяется
применяют
проводился
прожиточного
разговор
реабилитирован
реку
родов
ряда
собраны
составило
специальныи
спортивнои
стол
считается
съезде
татарскои
творческои
территорию
топливо
туимазинского
ущерб
цветут
шорт
##80
##ii
##алов
##ата
##гах
##еды
##енного
##еству
##ждать
##зованы
##ивая
##идных
##иского
##льского
##нины
##няка
##ориеи
##падает
##полняет
##реев
##ременно
##рс
##рские
##сс
##стки
##тв
##троение
##ческом
##щания
##щиеся
##ьбы
##ького
##яных
273
абсолютно
автобус
бсхи
ваше
взаимодеиствия
воиска
волна
встреч
выполнен
гололед
горная
горы
господь
готовности
дар
десятку
жара
жителя
занимают
иглинского
иоанна
ирина
культурная
медицинскои
мелеузовского
многим
номера
общем
объявили
открылись
открытым
педагоги
переписи
платить
пленарное
подростков
помещения
помогают
прибыль
продажи
пункта
роберт
смог
смысле
совещания
состязания
тасс
тел
традиционные
увеличение
усилия
факту
февр
финансов
читаите
шамиль
штормовое
экзамен
экономика
##вающие
##ведения
##гать
##дачи
##еме
##жную
##зина
##ивныи
##иском
##лассников
##ллы
##нспекция
##ожения
##осы
##пина
##правлять
##родскои
##сла
##тал
##тельно
##товои
##уру
##утся
##уть
##хозе
##чатыи
##чкои
##шаются
##шу
##щали
##яз
1905
251
аглиуллина
асфандияров
бал
библиотеку
двумя
деиствовало
деревья
дешевле
дорогои
достоино
евро
завершились
ибрагимов
иван
искусство
конец
конкурснои
коровы
короткии
кредитов
культурных
легко
лесные
лицеи
многолетняя
мфц
нефт
нефтянои
обрести
объявлены
обязаны
полтора
предстоящие
предусмотрены
произоидет
рашит
роспотребнадзор
рыбы
северныи
синоптиков
сов
составляла
ссылке
счастья
торатау
троику
труды
увеличилась
уезд
установлено
фехтованию
царство
экспозиция
этими
юниоров
##81
##ады
##банк
##венная
##венно
##гиз
##гия
##годии
##иальные
##ивным
##ид
##идут
##иды
##инов
##лагает
##ливая
##ложения
##лои
##ляции
##несен
##нести
##нич
##нном
##полнил
##пустить
##рное
##род
##сах
##стка
##улово
##хода
##чение
##чились
##чками
##являет
##ящая
05
ак
бакалинском
болезнь
большинства
бюджетных
воду
военно
гора
данному
деиствовали
законов
зао
заработал
заслуги
караидельском
каримов
кафе
климат
коров
красная
литература
литературныи
мероприятиях
месячник
миллион
морозов
муз
назначена
населенныи
нашему
носит
одежды
определен
оркестр
отдыхать
показ
попали
признаны
приити
причинои
прямом
раионного
россииско
самостоятельно
сатана
словом
сложно
современнои
способ
структура
товары
фаизи
физик
флешмоб
хоккею
хр
читать
школьных
электроннои
эпос
юношеи
ярмарках
##анс
##ас
##едов
##емы
##еское
##ждаются
##женнои
##ида
##ице
##ичного
##лат
##лка
##мена
##нг
##нник
##новление
##нтов
##ология
##пка
##ратно
##рована
##рового
##рости
##сана
##совет
##стям
##тельная
##телям
##хим
##ывали
##ьны
101
1924
библеиские
биишевои
ближнего
весенне
воли
востоку
времена
выделяются
гастролировал
городу
готовит
думать
заболевании
заведении
завершены
задачу
земельных
золотые
изменить
интересные
исполнит
источники
иэшлек
кам
комплексе
латыпов
лидирует
мгу
метод
музыканты
наиль
населением
одному
основу
отправились
поддержали
подписали
поселение
пошел
примеры
равиль
родным
родственники
салаватского
социальную
станция
уделяется
умерших
установить
участка
характерны
юбилею
южном
##90
##акция
##бран
##дное
##дуллина
##евскому
##ельными
##емскии
##ерные
##зная
##ико
##иму
##ицу
##лил
##лыми
##льскои
##лючение
##ляя
##манович
##нимает
##нкам
##оть
##панию
##ражение
##рот
##сово
##ссы
##стная
##стые
##тдинова
##тин
##тура
##усы
##чает
##чения
##чивает
##шняя
##ющую
автомобили
активность
америке
ассоциация
белыи
биатлону
ближе
вводится
всерос
вступает
высоком
выступила
героя
группу
единого
задолженность
закрыт
зачете
заявку
игра
изобретатель
искать
исполняется
каждую
казах
камень
квартал
ком
льготы
момента
назначения
наоборот
нарушение
ночи
нынешнем
общение
овощеи
озера
определят
опубликована
организацию
оценивается
победил
поводу
получает
последующие
поясе
произошла
работникам
реконструкцию
рим
рт
руках
самих
севернои
скот
современных
справки
стадии
стоят
теплее
торжественная
третьего
тюрксои
флавоноиды
хоз
христианам
центнеров
широколиств
являлся
ярмарок
##62
##is
##бина
##вели
##верить
##вшую
##ельского
##еро
##ескую
##жением
##иальных
##ивы
##идная
##иза
##изов
##куль
##лева
##листов
##ложены
##мены
##мухаметова
##образные
##овались
##овском
##оты
##пад
##пустил
##рее
##рики
##рил
##руз
##стке
##уров
##ущественных
##чиком
1914
благотворительныи
борьба
ведении
весеннии
взрослых
входил
выделяется
высшее
данного
дату
дважды
дворца
делегатов
дес
дополнительно
ежегодныи
елки
завершен
запись
использования
капитальныи
картофеля
клещеи
конкурсантов
находилась
начато
непросто
нефтекамска
новыми
осуществляться
отбор
памятников
пары
пл
подорожал
поиски
пределами
приедет
прямо
редакции
следующего
случаино
смертности
состоянию
сохранять
справиться
ста
строит
строится
тамыр
телевидения
тептяри
титул
турнире
увеличивается
уверены
установят
учебно
цех
честно
шашкам
штук
эл
эпоса
##аево
##анным
##ваи
##вода
##дадут
##дного
##дры
##еевич
##ельство
##елях
##зия
##зныи
##ильныи
##ионеров
##исал
##ковая
##невные
##нские
##нцы
##овское
##оги
##рав
##роны
##стая
##товые
##уп
##фикации
##хин
##хом
##центра
##чительно
##щают
##щика
03
автобусы
администрацию
анатолии
атлетике
белорецкого
важным
введена
веке
воин
выделены
высшеи
готовность
готовят
диам
динамика
думы
елка
жаркая
жили
завершилось
задать
зеленая
издавалась
ислам
исмагилова
исполнения
кара
картофель
кл
кстати
кушнаренковском
кхл
литературе
мам
михаилович
молодого
нарушения
небо
новогоднии
нуримановском
ок
основным
отеч
очевидно
переговоры
переход
подразделение
поликлиники
полным
помог
поскольку
появилось
правда
превысила
признана
призыв
причин
радости
республикои
родственников
самоуправления
случаях
снегопад
собственности
сочинения
строительные
сулеиманов
сыновья
телефонам
трав
тренеров
умерли
уфимскому
хылыукаи
цвет
целыи
шла
экспедиции
##ающии
##вано
##вар
##вления
##дник
##евых
##ельность
##ерных
##ером
##жите
##жными
##зно
##ивную
##иональная
##итных
##ичных
##лович
##менены
##мные
##нике
##нуты
##овато
##овныи
##очии
##ровых
##рском
##сер
##сиеи
##сился
##ственнои
##ствовали
##тельное
##тить
##шним
##ән
1200
1913
адм
алкоголя
антон
безопасность
булат
важнее
важную
веры
врио
выплат
выполнены
гареева
голоса
данном
дают
девочек
делают
деловои
достичь
екатеринбург
елку
женщину
живем
земледельцы
издательстве
изменилась
ишимбае
казахстане
красавиц
кубометров
кукол
ландшафты
лидер
лугах
люблю
малои
многом
мудрость
называют
налог
начинают
недель
несомненно
обладателем
объединение
огромныи
окружающеи
парад
певица
первенстве
плану
подобныи
показателю
полгода
политических
порывистыи
посетила
посещают
пояснил
праздников
праимериз
предложат
презентации
приурочено
прямостоячии
рабочим
родина
сдачи
сезону
семенами
сетях
сложная
служители
сооружения
техникум
торговля
узнал
уфим
японии
##азинского
##бель
##бор
##вую
##гуш
##дования
##жаются
##жному
##зного
##ировки
##ительных
##кович
##кспо
##летних
##лую
##льными
##мо
##нность
##оков
##онии
##онт
##правили
##рания
##ременныи
##рич
##рьевич
##ссии
##тивная
##тых
##уз
##уи
##улла
##ущества
##фаров
##хождения
##чево
##шено
##шнии
##щенныи
##ьбе
##ющиеся
155
650
аидар
апостол
баку
безработице
белебее
бесплатныи
благовещенском
важная
включительно
водохранилище
востока
врача
выполнять
выращивают
выходить
гражданин
дополнительных
дорогу
духовные
заражения
заявлении
иосиф
исмагилов
исполнении
канал
карантин
композитор
конституции
лесами
летнему
марии
набор
намного
национальные
необходимости
новогоднюю
новости
обработка
обсуждения
огонь
официальное
памятники
переданы
победителям
подешевели
поезд
пород
претендуют
притоки
про
процессе
развиваются
раздел
разработаны
реальные
рок
саита
сказали
служили
создавать
состоят
специальные
становятся
стихов
строитель
уроки
федоровском
фермы
фоие
царь
челяб
экономические
эстафету
эстрады
##67
##89
##en
##альным
##бег
##гда
##годные
##готовления
##дачу
##дование
##дуют
##едут
##ельства
##енную
##жащие
##ждали
##ждены
##жут
##зан
##зян
##ивается
##ивои
##идныи
##иныи
##ительного
##кса
##ленного
##ленное
##ливых
##логов
##ложить
##несла
##ничества
##нспекции
##няются
##оту
##падают
##рик
##рты
##ряют
##слом
##сот
##тивы
##тического
##уб
##уда
##учении
##фии
##что
##шедшего
##шних
##щенная
08
абдуллин
авиакомпания
альберт
башнефти
больница
вариант
видеть
визита
включена
возглавляет
вопроса
вступил
выявлены
гарипова
городские
графику
давида
демском
динамо
единственныи
жительница
завершение
законодательства
занято
засухи
ибрагимова
кандидата
китае
крс
кугарчинского
марки
музеев
нашел
обеспечение
обсуждение
обыкновенныи
осень
отл
победила
поголовье
пожелал
популярных
постр
построили
практика
прибыла
принимал
прогнозам
продлятся
прошу
пункты
родину
россииская
саммитов
свидетелеи
сегодняшнего
семен
сложен
случилось
снежныи
советник
состязании
сотни
специально
справились
старшина
танцы
татарстане
тау
трагедии
упразднен
уровню
филиала
числ
##24
##50
##la
##ta
##арт
##ары
##ато
##бами
##бирает
##бо
##дку
##довои
##единении
##ело
##енты
##ества
##жала
##жало
##жды
##жественные
##идя
##ионныи
##ишь
##ковои
##ленных
##логия
##ндии
##олита
##очек
##пущены
##рид
##рье
##сл
##стятся
##тво
##укции
##ург
##учено
##хои
##ционно
##щались
##является
##язан
124
1926
академия
апк
аскинском
бабича
башкортостанстат
бирске
бирскии
богатство
болото
важные
ведомство
ведущие
вернулись
видели
внутр
выпускает
горно
государственная
гумерова
делегацию
детском
дуванском
запасы
иглино
илья
иоанн
исполнители
крае
культурного
лагерь
математике
московскои
муниципалитеты
написано
неоднократно
номеров
нынешнего
обращение
общую
объединяет
озере
отдел
очередные
переработке
переходом
песню
подробную
помните
призеры
проверку
произрастают
прояснениях
раионнои
республиканские
серьезныи
сибири
скончалась
смотреть
снизился
современного
спасти
спектаклеи
ставки
стерлибашевском
счетом
таки
татарского
уголовное
учалах
фронт
функции
хаибуллинского
хлеб
хлеба
##63
##er
##авать
##анского
##бирают
##биться
##бнои
##бр
##вок
##готовить
##дзе
##дки
##ести
##женная
##живает
##зным
##ированию
##иск
##истыи
##ическими
##лого
##ничных
##нута
##овил
##платы
##поры
##рал
##сное
##стить
##стрировали
##строики
##тров
##уд
##упают
##уплении
##фера
##чики
##шинои
##шным
##ываем
106
107
114
археологии
ахмет
белорус
вечно
вещи
возможностями
вскрыто
городом
делаем
дет
деятели
дистанции
дождеи
достигла
духовнои
железнои
женои
занятии
зилаирского
зимних
знание
значения
золота
иванова
ищут
кладке
конгресса
кубке
кураистов
матереи
медоносные
моск
начинаются
обнаружено
образована
одиночные
определенные
осени
ответственности
перевод
племен
позицию
поселке
послание
призеров
природе
производственное
пчел
развитием
размещена
резко
саду
сбора
сельские
сестер
сила
собрать
специальности
структуре
существуют
та
такими
топлива
туристы
уважаемые
химия
художественныи
членом
штрафы
ярко
##40
##75
##83
##fa
##аков
##аток
##били
##бное
##бности
##верили
##гин
##дала
##дателеи
##деев
##дем
##деть
##езжают
##ельном
##зкии
##зор
##иальная
##иентов
##ителя
##кб
##лком
##ллович
##ложен
##матуллина
##мую
##нников
##образования
##оки
##пают
##работку
##ред
##рела
##становке
##тах
##тва
##тупит
##тым
##ходим
##чев
##ятого
09
119
аграриев
балтачевском
внедрены
внутри
возведение
восходит
временно
вышло
газете
галимов
гтрк
детства
добро
доверие
жилищно
завершения
заморозки
зарплате
зачастую
земель
источников
кадры
карта
конструкции
краине
лауреаты
лука
лучшеи
любителеи
марданов
медицинскии
молочная
насиживает
ночные
нравится
обеспечены
обо
октябрьскои
олимпиаде
олимпииского
откроются
официальных
пенсионныи
пишет
подано
подобное
поезда
попросил
призером
принимали
прогнозируются
проезда
русскому
рустем
ряде
самыми
семеиныи
сервис
сергея
серые
склоны
сложные
смертность
социалистического
способом
стены
сформирован
сырье
технолог
угии
ценные
численности
шежере
экспорт
эффективность
юлдаш
##18
##20
##22
##60
##76
##арем
##ателям
##бная
##водится
##вязь
##дость
##ез
##емые
##еским
##инском
##ионного
##истами
##истом
##ичном
##кал
##кер
##кина
##латить
##мотрен
##нала
##нских
##няк
##нялась
##оя
##падет
##пел
##пить
##пор
##раб
##рава
##рию
##рока
##стых
##сутствуют
##тать
##театра
##тивных
##трен
##уллина
##упят
##фин
##чались
##чая
##чиваются
##щаем
##янов
1927
авиации
благополучия
бюро
вопросе
вопросу
впоследствии
гкз
диагноз
единство
имеем
инвестиционныи
индии
испытания
истине
итогов
канале
колледжа
команде
коринфянам
легче
льду
магазинах
малышеи
масла
математик
местное
мокрыи
ну
обе
облачная
обратиться
обществе
объявлено
откуда
относительно
пенсионеры
погоду
предлагается
применяются
приурочен
пришла
программои
радует
размещены
раионныи
раионных
режима
родителями
свиты
сдавать
сена
сент
слабо
снижается
событием
сотрудничать
старшии
сумме
сырья
творчестве
театральная
трагедия
трудятся
ту
уфимским
участке
участница
учебном
форм
хорошим
экономическои
языком
ясно
##86
##атели
##ационныи
##брь
##вами
##венныи
##венным
##воз
##гир
##диться
##дными
##дшии
##единения
##елое
##енние
##ерным
##еют
##ждению
##живаем
##жка
##иным
##иска
##итвы
##ктов
##лах
##лев
##листы
##ловскои
##ложили
##муратова
##порт
##ппа
##пу
##работки
##ративно
##рении
##риев
##ряется
##ставлять
##стане
##тными
##тскии
##тят
##уживает
##уры
##учение
##феру
##финансирования
##фы
##центр
##ыграл
##яние
##ятое
##ятом
##ятых
##ящего
108
109
1910
автором
башавтотранс
благоустроиства
близким
братьям
бренд
васильевич
вашим
введены
видам
влияет
внутренних
выбирают
высоких
гафурииского
глубоко
головои
дворянскии
деда
декоративное
долг
другое
ждем
заинаб
заявления
зерно
имели
искренне
использованию
какими
календарь
каримова
кирилл
команду
коммунальные
личинки
массовые
медицины
медоносное
мечетлинского
мустафин
назовут
называется
насекомых
нашими
небольшая
нефтекамскии
нуждаются
обнаружили
обучаются
огня
октябрь
освоено
официальная
параллельно
передачи
плотн
подход
получилось
посевная
природныи
проголосовать
проживания
прокуратуры
промышленныи
процессы
равно
рами
религ
розовые
сагитов
самки
свидетелями
сельском
соблюдать
стартуют
суток
тренера
тренеры
треть
туризм
увидят
умеренного
ураза
уточнили
участника
учебное
фильмы
чекмагушевского
челябинск
членами
штаба
южно
##34
##96
##os
##ачи
##бным
##ведено
##водителеи
##готовлены
##данных
##дж
##дших
##еб
##едения
##елен
##енность
##ество
##живание
##зала
##ивые
##илизации
##инга
##ирова
##истых
##итов
##ично
##коло
##кция
##ламент
##лать
##ложился
##менение
##мень
##наты
##нке
##нятие
##ока
##проект
##проекта
##рались
##рамма
##ращаются
##росли
##руются
##рх
##стнои
##тивов
##тную
##урныи
##уш
##фе
##феи
##фи
##ходя
##цем
##чатся
##чески
##шему
##шись
##ываться
##ьев
##ьнеиших
##ющими
##явление
##яр
04
1912
авиакомпании
ангелы
билетов
благо
близкие
бронзовыи
важна
величина
внести
выделить
выделят
выиграла
газпром
ген
гимназия
горе
горячую
гостям
дальнего
данная
дер
дефицит
дому
дополнительныи
задолженности
законом
заметил
занимался
заняли
запас
инициатива
ислама
казанскии
казахстан
капитального
кастинг
кигинском
компенсации
контракта
круг
кузница
культ
кустарников
лев
летнюю
лидерах
маиские
мер
мэра
налоговые
налоговых
народная
научиться
небе
обещает
обсуждают
общественные
овощи
огнем
окна
определились
органич
ответили
отдельно
отправятся
оформление
пионером
повести
повысится
пользуются
пособие
поставить
поступил
появляются
президенту
приказ
просят
рабочую
разработана
реализовать
св
свободы
святого
сердечно
составят
соцветия
строителеи
татарскии
темои
терпение
торжественно
третьеи
трудиться
туристическии
удовольствием
факультет
цеха
шаги
ярус
##64
##68
##84
##u
##аз
##булатова
##везено
##веннои
##вим
##вито
##влечения
##вливается
##грузка
##давали
##дался
##днее
##ежных
##елка
##еременных
##ерными
##жан
##заров
##зовые
##иб
##ими
##имова
##иол
##исто
##кологии
##ктора
##ливои
##лое
##лько
##лючения
##ляите
##лями
##мскии
##нали
##нимал
##нков
##овник
##оф
##пром
##раться
##ращение
##ристы
##рком
##рть
##рых
##сны
##тивную
##тил
##тическои
##уженные
##учению
##формы
##ционное
##шко
##ын
147
активны
басыров
бензина
близок
боевых
большом
версии
верующих
весьма
воздухе
выплату
горячеи
грамоты
гульназ
дальнеишего
даниил
деиствие
делается
диагностики
документа
другая
духом
душу
заготовлено
знаком
зона
избирательные
инфекциеи
исполнять
кармаскалинского
керамика
книге
конкурсах
коронавирус
крестьян
леонид
лес
летних
личном
материнского
месторождение
мин
михаиловка
могла
моисеи
молочнои
мужа
мужского
музыкант
музыку
муниципального
набрал
надежды
налога
наталья
началом
обработки
обсудил
объему
огромная
озимые
оказать
определить
опубликовал
оренбургского
оставил
отвечает
отдельные
ошибки
пещеры
побуждает
подал
подвели
полка
полную
полушария
пользоваться
построены
потепление
почве
правил
предусмотрена
продолжаются
профессиональные
пшеницы
разработке
расходов
реисов
сибирскои
силами
систем
соискателеи
сообщение
спрос
старшины
стих
субботники
тысячах
тюркоязычных
ученикам
учителем
финалистов
финансовои
ходить
частично
электронная
электронные
##25
##61
##77
##битов
##блюдение
##бовать
##бых
##вало
##ванию
##вную
##водим
##ворение
##гали
##говор
##дству
##дулла
##ега
##ектор
##екции
##ентов
##ех
##жаем
##женныи
##зал
##зино
##иал
##измы
##инские
##ированные
##каево
##ледовать
##лив
##лине
##лючить
##лялись
##минского
##начально
##нд
##неишие
##огр
##отные
##паниеи
##равления
##рать
##ренцию
##рисов
##рному
##рную
##родного
##рона
##стного
##тен
##тивно
##тором
##трои
##чаются
##чок
##ямов
##янскои
02
1916
550
аукцион
баимаке
баимакскии
боевои
болезнеи
боль
большеи
брать
будущих
бурзянского
великого
вне
внес
внесли
вручение
вузах
гареев
греха
двор
десятки
дуванского
духовного
духовное
елистратов
инвестиционных
инициативу
иов
историк
каникул
коллегии
концертном
крещение
кровь
крыльев
максимальныи
малых
мамы
мера
монеты
мужество
напомнил
народу
научить
нигматуллин
орг
оркестра
основои
отметит
отправился
отправится
отремонтируют
отставку
отсутствие
охоты
пенсионного
пневмониеи
побывали
погодных
полевых
полиция
полномочия
понял
поступает
потребуется
почетное
почетные
праздничным
предприниматель
представления
претендентов
признание
продолжит
промыслами
профессиональным
профилактика
пунктах
ра
работника
радия
рано
ребенком
региональное
резерва
сабантуе
свободных
сдали
силои
склонах
следующая
соболезнования
собств
современным
соцсети
спасения
стараемся
татьяна
технику
уборку
указом
устанавливаются
учалинскии
учалы
участниц
факт
фарит
характера
широкие
экологическая
январь
##94
##iii
##адал
##альную
##анность
##анныи
##анскои
##анты
##аса
##бывать
##бым
##ватит
##ветствовал
##вился
##вляют
##водство
##воды
##городе
##графии
##деляют
##дился
##дние
##довал
##дователи
##еем
##ерации
##ечная
##жие
##зит
##зию
##зкая
##иальным
##идем
##инская
##иолог
##лежат
##ливыи
##лке
##мана
##несет
##ничество
##нники
##овного
##ову
##одное
##ону
##пасных
##рана
##ратилась
##рп
##рузов
##рыв
##силась
##ставки
##счет
##тку
##тро
##уллович
##хники
##честве
##читься
##шины
##шку
##щему
##ыров
##ьте
##ясь
##ящеи
##әк
##әр
126
175
1897
агидели
активисты
актуальные
альшеевского
баимак
бесплатное
виду
вижу
воспитания
востоке
вторых
выдано
генерального
генеральным
географии
деревень
доверия
доступна
друзьями
еникеев
естественныи
занималось
зеленыи
имущество
инзер
иностранных
кем
китаискои
латвии
латыпова
мажита
меняется
метр
модернизация
направят
нои
обозначил
обоидется
обоих
оказывать
организациеи
отборочныи
оценки
очередная
пашни
переработку
поддерживает
поидут
покажет
получено
правам
предоставления
приволжском
пришло
продажа
рассказывает
регионом
рождении
салавату
самодеятельности
самоизоляции
сельчане
снизились
солдат
солнце
сообщалось
ставка
судьба
сыновеи
татарском
торг
тысяча
уважением
усиление
успехи
установки
фондах
хаиретдинов
числу
энергии
югу
##92
##ium
##акет
##альность
##ард
##арю
##афа
##бка
##бовал
##бранию
##вно
##воиных
##гает
##дителю
##дствия
##екла
##ельщиков
##еского
##женные
##зли
##иву
##икии
##име
##ира
##ирована
##исать
##ителем
##кп
##лиев
##лл
##лтая
##метово
##мое
##одят
##оз
##оити
##ории
##пами
##пи
##полнят
##полняют
##правляется
##ратился
##рацию
##сеи
##син
##стными
##стым
##тик
##товка
##троения
##уется
##ун
##хих
##хова
##ционную
##ченныи
##читывает
##шедшие
##шние
##щами
##щивать
##щую
##юков
##ютово
##яем
1774
1907
mail
авраама
аксакова
активности
арина
аскар
ахметова
белую
берут
библиотеке
википедии
волонтеров
всесоюз
вчера
выиграли
выидут
выявили
география
государственную
гражд
графики
гумеров
даны
делали
деловая
дирижер
дмитрия
договор
досрочно
дочери
другого
жертв
заболевание
закиевич
записи
зарегистрирован
золотых
иисусом
ильшат
исполнением
культурные
лесов
личныи
маршруты
мастерства
мелеузе
минеральных
мусульмане
наградят
надежду
направлен
народом
находиться
нередко
нефть
никого
нуреева
обслуживания
объектах
оказана
опасности
основании
перми
подсчитали
подтвердили
показывает
поколении
политике
полутора
посвящено
посевных
посевы
посещение
поставлен
постановки
поток
празднование
пребывания
представительство
прекрасно
принципы
проверка
проголосовали
произ
пьесы
разрабатывается
рассмотреть
регионами
рима
ровно
роман
свинеи
сельхозпредприятия
сетеи
скором
совесть
создал
сократилось
соответствует
соседних
состава
среднемесячная
старые
текущеи
тенденция
удостоена
узнали
установка
учебныи
футболу
художники
эдуард
экспертов
юлия
##99
##алые
##аннои
##ательныи
##бого
##бывает
##вающии
##веден
##вижения
##гию
##готовили
##гулово
##дарности
##деиствие
##держали
##дяк
##едовано
##ект
##ечении
##жд
##зированы
##зования
##иальную
##ивое
##ившихся
##ировании
##истам
##итете
##ицах
##казов
##ловка
##ляла
##лялось
##менить
##мент
##мся
##накомились
##нание
##неры
##несена
##нику
##нистые
##нко
##нским
##нует
##овыми
##одство
##ожении
##очки
##пать
##пии
##поль
##правил
##развития
##рациеи
##реевич
##рен
##ресс
##рными
##рую
##сным
##стра
##ступил
##удов
##ули
##хо
##чательныи
##ческим
##ческую
##чив
##чивают
##читал
##шатся
##шнего
##щные
##юбил
##яция
128
2500
279
башкорт
белебеевскии
бюджете
владимирович
возбуждено
вол
вом
ворота
выдающиися
вячеслав
генерал
главные
голосом
гражданам
границы
данное
денис
десятков
доброту
другому
другую
ермекеевском
завершено
задеиствованы
заповедника
защитника
зло
иакова
имп
инфляция
исполкома
использовали
истины
историческии
ишимбаискии
картины
квн
крестьянами
культурно
купить
лежит
луки
массовых
мастерство
медицинского
мелодии
минсельхоза
многодетные
модель
мясные
назначили
наряду
наследия
наступает
начинаем
нынешнии
обмен
оз
окончании
оператор
определена
переработки
пищу
повышеннои
подробнее
подсолнечника
полицеиские
понимаю
пообщался
пора
посетят
последнего
постановка
пострадавшим
потерял
почты
предложено
предпринимательству
представителями
приложение
принята
проводили
продано
произведении
прямые
раионии
решению
розалия
рп
салаватскии
семьях
сертификат
сильнее
следующим
слову
служат
служения
создали
стамбуле
стареишины
сцены
тан
теми
требованиям
туризму
тэфи
тяжелои
уделено
улицу
управлении
усадьба
фольклорныи
холла
хорошеи
цехи
ширина
этапов
юсупова
являлись
якупов
##37
##49
##аискии
##ательства
##ателя
##бола
##бота
##ведут
##венное
##вного
##водов
##гается
##гарии
##гласили
##дев
##держки
##дителя
##дык
##едущии
##ежа
##елого
##енда
##ессии
##ждена
##жку
##звал
##звали
##ивают
##ивыи
##икам
##инскои
##ичныи
##ключили
##леев
##лиять
##мента
##мныи
##нальных
##ндия
##неишии
##нин
##нительная
##нспекторы
##об
##оза
##олочныи
##онич
##ором
##очное
##пк
##пустили
##раны
##ративного
##раты
##ретдинов
##ристов
##рман
##ровского
##рожные
##садки
##смотра
##статься
##ственную
##тацию
##телем
##тили
##учал
##уша
##ционном
##цкии
##чаино
##чится
##чих
##шевскои
##шенныи
##шныи
##щины
##ык
##ышленная
##ято
116
165
арена
базы
балет
банков
басс
белорецка
близких
бол
быстрее
важных
вахитов
вднх
вероятно
водоемов
возрастных
восст
встретились
выделен
высоким
выступают
господин
диктанта
евреям
жизнью
запустили
затраты
земская
зианчуринского
зону
интернат
информационно
кантон
кинофестиваль
коммунального
кормовых
красавица
летние
ликвидации
литературнои
личности
лучшая
минуты
многолетних
мтс
муниципалитета
наверное
неужели
окончило
организовали
оренбурге
освобожден
отделом
откроет
отличаются
отряд
пед
подготовили
подписания
показывают
попасть
посол
поступить
празднованию
предприятием
предприятиями
привезли
примере
принести
принимались
природа
присоединились
приходит
продолжить
прошлыи
пчеловодов
пчеловоды
распространение
режиссера
религии
репертуаре
речи
руды
руку
салют
санеи
селах
сквер
снизить
собирает
сострадание
специализированная
структуры
студия
судеи
супруги
сути
телеканале
техническии
технология
третья
укреплять
утверждены
учебы
фольклориады
фондом
царя
чп
эко
экскурсии
##авления
##арь
##аски
##ательным
##боты
##веи
##венного
##вия
##гана
##гим
##гласия
##держания
##евые
##еду
##еевскии
##еку
##екция
##елены
##елы
##ельств
##енды
##ературная
##ерская
##етных
##етром
##женных
##зкие
##зового
##иком
##инуллин
##иональным
##исали
##иум
##ичие
##каи
##кеи
##лага
##лек
##ливы
##лит
##мных
##нать
##нер
##нками
##нц
##ожили
##орта
##отои
##плено
##полняются
##поминает
##пции
##ращения
##реева
##рипов
##риям
##рнов
##роваться
##рода
##родных
##рожных
##сея
##сики
##смотрели
##стат
##стояния
##счете
##тников
##тон
##трел
##удеи
##улов
##упит
##ушка
##фан
##фия
##хая
##ценить
##ционным
##чее
##ченность
##читывать
##чук
##шнее
##шнем
##шор
##являют
117
118
1812
1909
276
vii
абзац
австрии
адам
ангел
башгидромет
белокатаиском
вашу
весеннего
внесены
волостное
вооруженных
вручения
вторым
выбрана
выплата
гали
геолог
глаз
добрыи
долгое
дольщиков
заверил
законопроектов
зимуют
илишевского
инструментов
ищет
камиль
канала
карте
килограммов
клинич
корана
которыми
крупного
куль
лабораторных
лауреатами
максимум
марафона
материнскии
мелкими
месту
мех
монашество
моно
московского
мусульм
мэрия
наказание
намерен
направлена
одежда
одежду
оказывается
освещение
оставить
петрович
пещере
писатели
погибла
подобная
подробно
полевые
посещать
потребность
правительству
представлять
презентацию
преподает
привести
приволжского
приобрели
приоритетных
продолжаться
промышленнои
простои
путешествие
пушкина
радостью
рассмотрят
рахимкулова
региональные
регионам
решено
римлянам
рр
садах
сведения
сделаем
сделан
сельчан
сложныи
сооружении
социальное
спине
стоимостью
теме
теории
травмы
трассе
умеренных
филол
фильме
фольклора
формируется
фундамент
художника
чел
шафикова
экзамена
экологические
явка
ярких
##39
##53
##72
##блюдения
##ведена
##вета
##видные
##влена
##вленных
##водят
##вскои
##вьте
##гаево
##гаи
##годным
##дам
##дат
##дель
##дятся
##еводство
##езжает
##ерное
##ерность
##еством
##еты
##жах
##жая
##жительно
##зова
##иво
##инки
##инно
##ионных
##ированнои
##клад
##крывается
##кского
##купку
##летняя
##мами
##мат
##менять
##мово
##натных
##нинскии
##ожено
##ошел
##пели
##писка
##пно
##пуске
##равилось
##разить
##рг
##ровые
##рыва
##сса
##стал
##стали
##стку
##стье
##тавляется
##там
##тельном
##тет
##топления
##уки
##уше
##шегося
##шимся
##шком
##шмы
##щался
##ывая
##ьевич
##юркского
##явления
##ятым
##ҙ
01
111
113
121
136
142
218
270
абзацы
архитекторов
банке
белых
бесплатным
билет
благотворительная
бюджетов
василии
вероятность
викторович
возвращается
воспользоваться
восточнои
выидет
выкуп
выполнить
высш
галимова
град
грехи
гречихи
гриппом
детско
длинныи
жилои
журналистики
заболели
заранее
зарубежных
защите
звонок
зимние
играет
иерусалим
избежать
израильтяне
ик
инновации
инновационнои
киностудии
кинофестиваля
коллекции
конкурсные
крепкого
кумыс
кызы
лаборатории
летнее
линеиные
лицо
личных
мелеуз
метель
министерством
модернизацию
назначил
налоги
нефтехим
новорожденных
обряды
обыкновенная
одни
однолетние
определил
опустится
петь
племени
площадкои
полицию
полная
получаем
понимание
популярные
посевов
посещения
предусматривает
преподавал
придут
призывников
примером
присоединился
провела
работодателеи
размещения
рассказы
рафаэль
рождаемость
рыб
сельхозярмарки
сентябрь
сер
сказки
собственного
совете
сохранение
сохранения
спец
среде
стадионе
сто
столь
структуру
твоя
текущии
терпеливо
туимазинскии
туман
уверенность
украины
укрепить
универсиады
учрежден
целеи
ценными
шагита
эфир
юлаеву
янаул
##c
##w
##аемся
##акли
##альном
##анк
##араи
##ату
##атят
##ающих
##бак
##башево
##больного
##брали
##вигаться
##влекать
##вливают
##влять
##вное
##вных
##вучат
##вь
##гко
##глашение
##годе
##гт
##данов
##дарить
##дным
##ебная
##еде
##едь
##езжать
##емах
##ешает
##ещения
##ждался
##женного
##жники
##зиция
##знои
##ивает
##изы
##ипу
##иство
##ическому
##ище
##каза
##купок
##лата
##ледствие
##лезы
##летние
##ливать
##лючен
##лялся
##меты
##мечательно
##минев
##минов
##никают
##нс
##овалась
##овку
##ождение
##озное
##омическая
##очном
##питание
##плекс
##ппарат
##проектов
##работали
##рался
##рация
##рды
##рено
##рест
##рис
##роза
##рость
##рыт
##селка
##сения
##сли
##становки
##стике
##стоял
##стрируют
##суточно
##туплении
##упным
##уре
##учать
##учения
##ушку
##химик
##чева
##шак
##щало
##щимся
##ыши
##явил
##язанные
##янныи
##ящую
122
156
1800
1904
1908
1915
320
абдразакова
азия
аинур
активные
анализ
анвар
арены
артиста
артистка
бабиков
бгпи
благую
боролись
брака
браков
братьями
важны
ветеран
взаимодеиствие
военную
выписано
германия
городская
госдума
госдуму
госкомитета
госсобрание
греч
губкина
двум
делегаты
депутата
директоров
длится
долгие
доход
желания
животноводы
заместителя
запрет
зараженных
захаров
земфира
золотую
имела
инициатором
испании
калининском
категориях
квадратныи
ключ
конкурсу
коэффициент
ленингр
магазина
материала
машина
мельниц
металлов
мирового
наградил
награжденных
назначены
написали
национально
недвижимость
некоторым
неплохие
обладают
обращаться
одержал
оказывает
оставили
отметим
отсутствует
партнеров
передать
пишут
планета
победили
поверхности
подарками
подраион
получали
поступления
признался
приходилось
продолжатся
прошлым
рассказать
регистрируемои
решила
ряды
самому
северных
семинара
серьезная
силах
смены
соберет
совместнои
совместных
солнца
сорта
сроком
стадион
стола
судить
творч
трезвое
убыль
увеличен
улучшить
уникальныи
утвердили
уфимскую
учатся
учебные
учредитель
уши
ушла
фермеров
филос
фирма
хорошую
ценам
частные
черные
четко
экзаменов
экологическои
электронную
эмоции
энергетики
эффективности
##f
##ir
##адно
##арныи
##борке
##брения
##бус
##бую
##вана
##ведем
##вижение
##вистыи
##вита
##волжья
##вонки
##вском
##гура
##давались
##делие
##делил
##дение
##дится
##дним
##дстве
##дцать
##ебенку
##единиться
##еж
##еле
##енд
##ени
##ждаться
##ждающихся
##жество
##жительные
##зные
##зовании
##зуются
##изуется
##илища
##инское
##иональнои
##истая
##итве
##казал
##казался
##кальные
##кнулись
##крывать
##летнего
##ливаться
##ложении
##лушать
##льдин
##менты
##местно
##мит
##надцать
##нарии
##натные
##нган
##невые
##нили
##нинского
##няет
##овным
##овных
##омических
##онтировано
##оружение
##оставляются
##отек
##пало
##пнои
##полнен
##полнился
##пользование
##правка
##рабатывать
##работке
##ратил
##рены
##рием
##рмония
##ронных
##рпорации
##руг
##сила
##сится
##спект
##ставляли
##сто
##стоящеи
##тит
##товку
##торно
##тупать
##турного
##туру
##улова
##уралье
##урные
##устить
##утых
##фина
##фициальным
##ходы
##цетные
##частью
##чательные
##чевскии
##честву
##шаться
##шением
##шилась
##шскии
##щеннои
##щенные
##ъяснил
##ьзования
##ьих
##ьян
анализа
арсланов
башкортостаном
больниц
больные
включая
возможные
воинов
восточных
выходила
главную
дальнеишее
дворцом
делится
дум
заводского
заинтересованы
заключительныи
закрыто
заняты
записан
заявили
земельные
зиганшин
зима
иванов
избирательнои
ипотеке
караван
кинематографистов
кировском
коммуникации
композиции
контроля
корма
кпсс
кризиса
кумыса
лед
лесостепнои
леспромхоз
литературу
малая
матча
медиков
международному
местному
мороз
мощн
наблюдать
направить
наследие
национальностеи
необходима
николая
обладатель
образованию
образуют
оргкомитет
осенние
основное
останутся
отцу
офис
перспективе
площадку
победои
подвел
пожаре
получается
помогли
помогло
понизится
поправки
популярность
поэтов
праздновании
предварительная
предполагает
привел
привлечь
приехал
продолжена
проектом
проинспектировал
проповеди
разобраться
расход
свидетельствует
своя
семеиных
серебряную
слове
случаю
смысл
согласии
составлен
состязание
среда
среднегодовая
стоикость
студентам
судья
творческого
транспортных
требуют
турецкои
увольнения
уровнеи
урок
условиям
утвердил
финансовых
фотовыставка
хирург
хоккеиныи
черныи
чтение
чувство
шакиров
эксперт
эстафета
эффект
##!
###
##$
##%
##&
##(
##)
##*
##+
##,
##-
##.
##/
##:
##;
##=
##?
##@
##_
##`
##h
##j
##q
##z
##«
##¬
##®
##°
##±
##·
##»
##×
##ə
##˗
##α
##β
##γ
##ι
##ъ
##ј
##љ
##ғ
##җ
##ң
##ҫ
##ү
##ұ
##һ
##ө
##י
##‐
##–
##—
##―
##’
##“
##”
##„
##†
##•
##‰
##′
##※
##⁄
##−
##∙
##⋅
##─
##⠀
